{
  "version": "1.0",
  "truncation": {
    "direction": "Right",
    "max_length": 8192,
    "strategy": "LongestFirst",
    "stride": 0
  },
  "padding": {
    "strategy": "BatchLongest",
    "direction": "Right",
    "pad_to_multiple_of": null,
    "pad_id": 0,
    "pad_type_id": 0,
    "pad_token": "<pad>"
  },
  "added_tokens": [
    {
      "id": 0,
      "content": "<pad>",
      "single_word": false,
      "lstrip": false,
      "rstrip": false,
      "normalized": false,
      "special": true
    },
    {
      "id": 1,
      "content": "<s>",
      "single_word": false,
      "lstrip": false,
      "rstrip": false,
      "normalized": false,
      "special": true
    },
    {
      "id": 2,
      "content": "</s>",
      "single_word": false,
      "lstrip": false,
      "rstrip": false,
      "normalized": false,
      "special": true
    },
    {
      "id": 3,
      "content": "<unk>",
      "single_word": false,
      "lstrip": false,
      "rstrip": false,
      "normalized": false,
      "special": true
    },
    {
      "id": 4,
      "content": "<mask>",
      "single_word": false,
      "lstrip": false,
      "rstrip": false,
      "normalized": false,
      "special": true
    }
  ],
  "normalizer": {
    "type": "NFKC"
  },
  "pre_tokenizer": {
    "type": "ByteLevel",
    "add_prefix_space": true,
    "trim_offsets": true,
    "use_regex": true
  },
  "post_processor": {
    "type": "TemplateProcessing",
    "single": [
      {
        "SpecialToken": {
          "id": "<s>",
          "type_id": 0
        }
      },
      {
        "Sequence": {
          "id": "A",
          "type_id": 0
        }
      },
      {
        "SpecialToken": {
          "id": "</s>",
          "type_id": 0
        }
      }
    ],
    "pair": [
      {
        "SpecialToken": {
          "id": "<s>",
          "type_id": 0
        }
      },
      {
        "Sequence": {
          "id": "A",
          "type_id": 0
        }
      },
      {
        "SpecialToken": {
          "id": "</s>",
          "type_id": 0
        }
      },
      {
        "Sequence": {
          "id": "B",
          "type_id": 0
        }
      },
      {
        "SpecialToken": {
          "id": "</s>",
          "type_id": 0
        }
      }
    ],
    "special_tokens": {
      "</s>": {
        "id": "</s>",
        "ids": [
          2
        ],
        "tokens": [
          "</s>"
        ]
      },
      "<s>": {
        "id": "<s>",
        "ids": [
          1
        ],
        "tokens": [
          "<s>"
        ]
      }
    }
  },
  "decoder": {
    "type": "ByteLevel",
    "add_prefix_space": true,
    "trim_offsets": true,
    "use_regex": true
  },
  "model": {
    "type": "BPE",
    "dropout": null,
    "unk_token": null,
    "continuing_subword_prefix": null,
    "end_of_word_suffix": null,
    "fuse_unk": false,
    "byte_fallback": false,
    "ignore_merges": false,
    "vocab": {
      "<pad>": 0,
      "<s>": 1,
      "</s>": 2,
      "<unk>": 3,
      "<mask>": 4,
      "!": 5,
      "\"": 6,
      "#": 7,
      "$": 8,
      "%": 9,
      "&": 10,
      "'": 11,
      "(": 12,
      ")": 13,
      "*": 14,
      "+": 15,
      ",": 16,
      "-": 17,
      ".": 18,
      "/": 19,
      "0": 20,
      "1": 21,
      "2": 22,
      "3": 23,
      "4": 24,
      "5": 25,
      "6": 26,
      "7": 27,
      "8": 28,
      "9": 29,
      ":": 30,
      ";": 31,
      "<": 32,
      "=": 33,
      ">": 34,
      "?": 35,
      "@": 36,
      "A": 37,
      "B": 38,
      "C": 39,
      "D": 40,
      "E": 41,
      "F": 42,
      "G": 43,
      "H": 44,
      "I": 45,
      "J": 46,
      "K": 47,
      "L": 48,
      "M": 49,
      "N": 50,
      "O": 51,
      "P": 52,
      "Q": 53,
      "R": 54,
      "S": 55,
      "T": 56,
      "U": 57,
      "V": 58,
      "W": 59,
      "X": 60,
      "Y": 61,
      "Z": 62,
      "[": 63,
      "\\": 64,
      "]": 65,
      "^": 66,
      "_": 67,
      "`": 68,
      "a": 69,
      "b": 70,
      "c": 71,
      "d": 72,
      "e": 73,
      "f": 74,
      "g": 75,
      "h": 76,
      "i": 77,
      "j": 78,
      "k": 79,
      "l": 80,
      "m": 81,
      "n": 82,
      "o": 83,
      "p": 84,
      "q": 85,
      "r": 86,
      "s": 87,
      "t": 88,
      "u": 89,
      "v": 90,
      "w": 91,
      "x": 92,
      "y": 93,
      "z": 94,
      "{": 95,
      "|": 96,
      "}": 97,
      "~": 98,
      "¡": 99,
      "¢": 100,
      "£": 101,
      "¤": 102,
      "¥": 103,
      "¦": 104,
      "§": 105,
      "¨": 106,
      "©": 107,
      "ª": 108,
      "«": 109,
      "¬": 110,
      "®": 111,
      "¯": 112,
      "°": 113,
      "±": 114,
      "²": 115,
      "³": 116,
      "´": 117,
      "µ": 118,
      "¶": 119,
      "·": 120,
      "¸": 121,
      "¹": 122,
      "º": 123,
      "»": 124,
      "¼": 125,
      "½": 126,
      "¾": 127,
      "¿": 128,
      "À": 129,
      "Á": 130,
      "Â": 131,
      "Ã": 132,
      "Ä": 133,
      "Å": 134,
      "Æ": 135,
      "Ç": 136,
      "È": 137,
      "É": 138,
      "Ê": 139,
      "Ë": 140,
      "Ì": 141,
      "Í": 142,
      "Î": 143,
      "Ï": 144,
      "Ð": 145,
      "Ñ": 146,
      "Ò": 147,
      "Ó": 148,
      "Ô": 149,
      "Õ": 150,
      "Ö": 151,
      "×": 152,
      "Ø": 153,
      "Ù": 154,
      "Ú": 155,
      "Û": 156,
      "Ü": 157,
      "Ý": 158,
      "Þ": 159,
      "ß": 160,
      "à": 161,
      "á": 162,
      "â": 163,
      "ã": 164,
      "ä": 165,
      "å": 166,
      "æ": 167,
      "ç": 168,
      "è": 169,
      "é": 170,
      "ê": 171,
      "ë": 172,
      "ì": 173,
      "í": 174,
      "î": 175,
      "ï": 176,
      "ð": 177,
      "ñ": 178,
      "ò": 179,
      "ó": 180,
      "ô": 181,
      "õ": 182,
      "ö": 183,
      "÷": 184,
      "ø": 185,
      "ù": 186,
      "ú": 187,
      "û": 188,
      "ü": 189,
      "ý": 190,
      "þ": 191,
      "ÿ": 192,
      "Ā": 193,
      "ā": 194,
      "Ă": 195,
      "ă": 196,
      "Ą": 197,
      "ą": 198,
      "Ć": 199,
      "ć": 200,
      "Ĉ": 201,
      "ĉ": 202,
      "Ċ": 203,
      "ċ": 204,
      "Č": 205,
      "č": 206,
      "Ď": 207,
      "ď": 208,
      "Đ": 209,
      "đ": 210,
      "Ē": 211,
      "ē": 212,
      "Ĕ": 213,
      "ĕ": 214,
      "Ė": 215,
      "ė": 216,
      "Ę": 217,
      "ę": 218,
      "Ě": 219,
      "ě": 220,
      "Ĝ": 221,
      "ĝ": 222,
      "Ğ": 223,
      "ğ": 224,
      "Ġ": 225,
      "ġ": 226,
      "Ģ": 227,
      "ģ": 228,
      "Ĥ": 229,
      "ĥ": 230,
      "Ħ": 231,
      "ħ": 232,
      "Ĩ": 233,
      "ĩ": 234,
      "Ī": 235,
      "ī": 236,
      "Ĭ": 237,
      "ĭ": 238,
      "Į": 239,
      "į": 240,
      "İ": 241,
      "ı": 242,
      "Ĳ": 243,
      "ĳ": 244,
      "Ĵ": 245,
      "ĵ": 246,
      "Ķ": 247,
      "ķ": 248,
      "ĸ": 249,
      "Ĺ": 250,
      "ĺ": 251,
      "Ļ": 252,
      "ļ": 253,
      "Ľ": 254,
      "ľ": 255,
      "Ŀ": 256,
      "ŀ": 257,
      "Ł": 258,
      "ł": 259,
      "Ń": 260,
      "en": 261,
      "er": 262,
      "in": 263,
      "Ġa": 264,
      "Ġt": 265,
      "Ġd": 266,
      "ch": 267,
      "es": 268,
      "on": 269,
      "Ġth": 270,
      "un": 271,
      "it": 272,
      "is": 273,
      "Ġs": 274,
      "Ġw": 275,
      "at": 276,
      "ie": 277,
      "or": 278,
      "an": 279,
      "Ġthe": 280,
      "re": 281,
      "Ġb": 282,
      "Ġo": 283,
      "al": 284,
      "ar": 285,
      "Ġin": 286,
      "Ġf": 287,
      "ich": 288,
      "Ġm": 289,
      "te": 290,
      "ion": 291,
      "Ġe": 292,
      "Ġan": 293,
      "ur": 294,
      "as": 295,
      "le": 296,
      "Ġp": 297,
      "Ġc": 298,
      "Ġun": 299,
      "Ġh": 300,
      "us": 301,
      "ĠS": 302,
      "ent": 303,
      "ge": 304,
      "Ġof": 305,
      "ro": 306,
      "Ã¼": 307,
      "Ġn": 308,
      "Ġv": 309,
      "ing": 310,
      "ung": 311,
      "Ġand": 312,
      "Ġto": 313,
      "Ã¤": 314,
      "ĠA": 315,
      "ll": 316,
      "ed": 317,
      "Ġdie": 318,
      "om": 319,
      "Ġder": 320,
      "Ġund": 321,
      "ĠE": 322,
      "ĠI": 323,
      "ig": 324,
      "st": 325,
      "ic": 326,
      "Ġbe": 327,
      "ĠM": 328,
      "Ġis": 329,
      "ĠD": 330,
      "ĠT": 331,
      "Ġein": 332,
      "ĠB": 333,
      "ĠP": 334,
      "ir": 335,
      "Ġz": 336,
      "im": 337,
      "Ġg": 338,
      "el": 339,
      "ut": 340,
      "ra": 341,
      "ter": 342,
      "em": 343,
      "il": 344,
      "ĠW": 345,
      "ten": 346,
      "ol": 347,
      "ation": 348,
      "der": 349,
      "eit": 350,
      "et": 351,
      "ĠF": 352,
      "Ġl": 353,
      "am": 354,
      "den": 355,
      "Ġre": 356,
      "ĠG": 357,
      "hr": 358,
      "ies": 359,
      "um": 360,
      "op": 361,
      "ĠK": 362,
      "ct": 363,
      "ĠH": 364,
      "sch": 365,
      "ĠR": 366,
      "ul": 367,
      "Ġk": 368,
      "uf": 369,
      "ĠC": 370,
      "Ã¶": 371,
      "ber": 372,
      "iv": 373,
      "lich": 374,
      "de": 375,
      "ĠV": 376,
      "Ġfor": 377,
      "ab": 378,
      "ot": 379,
      "Ã¼r": 380,
      "isch": 381,
      "ier": 382,
      "icht": 383,
      "gen": 384,
      "ĠTh": 385,
      "Ġon": 386,
      "Ġdas": 387,
      "Ġzu": 388,
      "ĠL": 389,
      "ere": 390,
      "Ġden": 391,
      "ly": 392,
      "ess": 393,
      "est": 394,
      "Ġthat": 395,
      "os": 396,
      "and": 397,
      "id": 398,
      "ĠU": 399,
      "ce": 400,
      "omm": 401,
      "ein": 402,
      "ers": 403,
      "Ġpro": 404,
      "Ġal": 405,
      "ow": 406,
      "Ġwh": 407,
      "ach": 408,
      "Ġvon": 409,
      "Ġr": 410,
      "ort": 411,
      "Ġge": 412,
      "Ġim": 413,
      "uch": 414,
      "ÃŁ": 415,
      "Ġst": 416,
      "ith": 417,
      "Ġy": 418,
      "ĠIn": 419,
      "Ġwir": 420,
      "kt": 421,
      "ĠN": 422,
      "if": 423,
      "Ġcon": 424,
      "Ġist": 425,
      "Ġver": 426,
      "Ġer": 427,
      "ver": 428,
      "Ġwith": 429,
      "Ġauf": 430,
      "Ġwe": 431,
      "ĠfÃ¼r": 432,
      "urop": 433,
      "ay": 434,
      "ill": 435,
      "Ġdes": 436,
      "Ġit": 437,
      "ve": 438,
      "Ġmit": 439,
      "Ġare": 440,
      "ad": 441,
      "ts": 442,
      "ĠZ": 443,
      "Ġ1": 444,
      "ind": 445,
      "Ġas": 446,
      "ck": 447,
      "Ġso": 448,
      "âĢ": 449,
      "Ġ(": 450,
      "Ġde": 451,
      "ĠThe": 452,
      "Ġne": 453,
      "iss": 454,
      "Ġyo": 455,
      "ĠSt": 456,
      "Ġdies": 457,
      "end": 458,
      "af": 459,
      "ĠEurop": 460,
      "pp": 461,
      "ate": 462,
      "ment": 463,
      "ik": 464,
      "th": 465,
      "Ġse": 466,
      "qu": 467,
      "Ġ2": 468,
      "ist": 469,
      "ungen": 470,
      "la": 471,
      "00": 472,
      "ĠUn": 473,
      "ischen": 474,
      "nen": 475,
      "men": 476,
      "ib": 477,
      "ĠVer": 478,
      "Ġals": 479,
      "ust": 480,
      "Ġeine": 481,
      "ak": 482,
      "Ġex": 483,
      "ant": 484,
      "ne": 485,
      "Ġdem": 486,
      "for": 487,
      "ah": 488,
      "Ġthis": 489,
      "ity": 490,
      "ĠO": 491,
      "Ġha": 492,
      "ien": 493,
      "ive": 494,
      "ial": 495,
      "ĠAn": 496,
      "ĠSie": 497,
      "Ġj": 498,
      "Ġor": 499,
      "art": 500,
      "Ġnicht": 501,
      "ĠJ": 502,
      "pe": 503,
      "Ġwer": 504,
      "und": 505,
      "ug": 506,
      "Ġco": 507,
      "Ġnot": 508,
      "ann": 509,
      "Ã¼ber": 510,
      "ste": 511,
      "Ġ-": 512,
      "Ġsich": 513,
      "Ġall": 514,
      "Ġle": 515,
      "Ã¤n": 516,
      "ub": 517,
      "ff": 518,
      "Ġwerden": 519,
      "tel": 520,
      "ĠRe": 521,
      "Ġby": 522,
      "we": 523,
      "Ġhave": 524,
      "Ġdass": 525,
      "rom": 526,
      "ag": 527,
      "igen": 528,
      "Ġat": 529,
      "igh": 530,
      "Ġes": 531,
      "ass": 532,
      "ens": 533,
      "ain": 534,
      "Ġaus": 535,
      "all": 536,
      "uld": 537,
      "ĠDie": 538,
      "Ġyou": 539,
      "Ġsh": 540,
      "up": 541,
      "Ġwill": 542,
      "sp": 543,
      "Ġab": 544,
      "od": 545,
      "Ġcom": 546,
      "Ġuns": 547,
      "iel": 548,
      "ern": 549,
      "ĠÃ¼ber": 550,
      "aus": 551,
      "Ġi": 552,
      "ure": 553,
      "Ġme": 554,
      "ze": 555,
      "ions": 556,
      "age": 557,
      "Ġwhich": 558,
      "ommiss": 559,
      "ĠPr": 560,
      "ran": 561,
      "ted": 562,
      "Ġwas": 563,
      "Ġauch": 564,
      "ĠSch": 565,
      "ben": 566,
      "lie": 567,
      "Ġfrom": 568,
      "ĠEurope": 569,
      "ahr": 570,
      "..": 571,
      "hen": 572,
      "ungs": 573,
      "hal": 574,
      "du": 575,
      "och": 576,
      "ard": 577,
      "Ġum": 578,
      "ĠBe": 579,
      "ĠâĢ": 580,
      "ould": 581,
      "Ġsind": 582,
      "Ġsch": 583,
      "ĠWe": 584,
      "Ġus": 585,
      "tern": 586,
      "ĠPro": 587,
      "tr": 588,
      "Ġch": 589,
      "ommission": 590,
      "ident": 591,
      "og": 592,
      "Ġpr": 593,
      "Ġent": 594,
      "fer": 595,
      "Ġvor": 596,
      "Ġwird": 597,
      "ĠEn": 598,
      "uss": 599,
      "Ġhas": 600,
      "esch": 601,
      "ue": 602,
      "Ġhab": 603,
      "schaf": 604,
      "ip": 605,
      "iz": 606,
      "mer": 607,
      "ft": 608,
      "port": 609,
      "ine": 610,
      "Ġwor": 611,
      "gr": 612,
      "Ã¶n": 613,
      "ss": 614,
      "ud": 615,
      "Ġres": 616,
      "Ġen": 617,
      "ang": 618,
      "oc": 619,
      "llen": 620,
      "ous": 621,
      "ische": 622,
      "ĠEr": 623,
      "ick": 624,
      "ok": 625,
      "ĠPar": 626,
      "Ġwie": 627,
      "Ġda": 628,
      "enn": 629,
      "ast": 630,
      "Ã¤t": 631,
      "our": 632,
      "Ġhe": 633,
      "urch": 634,
      "Ġcan": 635,
      "me": 636,
      "Ġman": 637,
      "ise": 638,
      "able": 639,
      "etz": 640,
      "Ġam": 641,
      "err": 642,
      "form": 643,
      "ige": 644,
      "ire": 645,
      "keit": 646,
      "Ġhat": 647,
      "Ġsein": 648,
      "Ġich": 649,
      "ĠAr": 650,
      "ap": 651,
      "ost": 652,
      "pr": 653,
      "Ġoder": 654,
      "ert": 655,
      "ament": 656,
      "Ġour": 657,
      "ia": 658,
      "ore": 659,
      "otel": 660,
      "be": 661,
      "cc": 662,
      "erv": 663,
      "Ġcomp": 664,
      "Ġzur": 665,
      "ult": 666,
      "Ġalso": 667,
      "beit": 668,
      "ĠEuropean": 669,
      "ations": 670,
      "Ġhaben": 671,
      "Ġsie": 672,
      "Ġ\"": 673,
      "ĠMit": 674,
      "ational": 675,
      "ction": 676,
      "ical": 677,
      "heit": 678,
      "ru": 679,
      "ition": 680,
      "Ġad": 681,
      "ese": 682,
      "ish": 683,
      "lichen": 684,
      "ĠAus": 685,
      "ice": 686,
      "lo": 687,
      "ated": 688,
      "he": 689,
      "are": 690,
      "out": 691,
      "dern": 692,
      "ĠEin": 693,
      "Ġbei": 694,
      "Ġdo": 695,
      "Ġeiner": 696,
      "ĠkÃ¶n": 697,
      "ĠÃ": 698,
      "ome": 699,
      "olit": 700,
      "rit": 701,
      "se": 702,
      "aten": 703,
      "tz": 704,
      "hl": 705,
      "ther": 706,
      "Ġ200": 707,
      "ĠWir": 708,
      "ĠGe": 709,
      "ord": 710,
      "ark": 711,
      "fÃ¼": 712,
      "pt": 713,
      "ieren": 714,
      "ect": 715,
      "Ġunter": 716,
      "Ã¼n": 717,
      "ĠParl": 718,
      "her": 719,
      "Ġnach": 720,
      "Ġqu": 721,
      "schaft": 722,
      "ac": 723,
      "Ġeinen": 724,
      "ht": 725,
      "ms": 726,
      "ign": 727,
      "'s": 728,
      "Ġpart": 729,
      "Ã¤r": 730,
      "tet": 731,
      "iert": 732,
      "elt": 733,
      "Ġyour": 734,
      "ight": 735,
      "Ġits": 736,
      "ĠUnion": 737,
      "vel": 738,
      "ates": 739,
      "oun": 740,
      "ake": 741,
      "Ġte": 742,
      "tra": 743,
      "ĠDas": 744,
      "ear": 745,
      "Ġreg": 746,
      "ite": 747,
      "Ġdurch": 748,
      "Ġgro": 749,
      "ĠFra": 750,
      "ank": 751,
      "ian": 752,
      "au": 753,
      "ger": 754,
      "ĠBer": 755,
      "yste": 756,
      "fen": 757,
      "Ġsu": 758,
      "Ġsp": 759,
      "Ġbut": 760,
      "ary": 761,
      "ĠIt": 762,
      "Ġwur": 763,
      "ember": 764,
      "Ġgo": 765,
      "Ġro": 766,
      "Ġag": 767,
      "ide": 768,
      "cial": 769,
      "ĠVor": 770,
      "ĠIch": 771,
      "ĠkÃ¶nnen": 772,
      "ĠAb": 773,
      "oll": 774,
      "Ġthere": 775,
      "liche": 776,
      "ĠMr": 777,
      "gt": 778,
      "per": 779,
      "Ġ3": 780,
      "Ã¤s": 781,
      "con": 782,
      "Ġapp": 783,
      "ose": 784,
      "Ã¶r": 785,
      "hre": 786,
      "Ġste": 787,
      "ĠCommission": 788,
      "anz": 789,
      "Ġdar": 790,
      "ĠEU": 791,
      "cht": 792,
      "ĠHerr": 793,
      "Ġtra": 794,
      "Ġwar": 795,
      "ual": 796,
      "chen": 797,
      "Ġ19": 798,
      "rie": 799,
      "cl": 800,
      "ime": 801,
      "Ġspe": 802,
      "Ġwould": 803,
      "eren": 804,
      "ĠmÃ¶": 805,
      "Ġmore": 806,
      "ance": 807,
      "tw": 808,
      "ĠâĢĵ": 809,
      "ile": 810,
      "ail": 811,
      "ov": 812,
      "Ġzum": 813,
      "Ġtheir": 814,
      "Ġeinem": 815,
      "ommen": 816,
      "Ġbeen": 817,
      "mp": 818,
      "Ġgen": 819,
      "Ġbes": 820,
      "Ġcont": 821,
      "reat": 822,
      "glich": 823,
      "ute": 824,
      "ase": 825,
      "imm": 826,
      "âĢĻ": 827,
      "uÃŁ": 828,
      "ĠAl": 829,
      "ong": 830,
      "ame": 831,
      "act": 832,
      "ĠEuropÃ¤": 833,
      "chte": 834,
      "chn": 835,
      "Ġar": 836,
      "ild": 837,
      "utz": 838,
      "ĠTe": 839,
      "gra": 840,
      "Ġkann": 841,
      "Ġfin": 842,
      "ĠThis": 843,
      "Ã¼ck": 844,
      "ble": 845,
      "oss": 846,
      "ĠDe": 847,
      "ack": 848,
      "Ġdiese": 849,
      "Ġone": 850,
      "che": 851,
      "Ã¼ss": 852,
      "ĠLe": 853,
      "Ġacc": 854,
      "Ġnur": 855,
      "ont": 856,
      "Ġdis": 857,
      "one": 858,
      "ugh": 859,
      "ents": 860,
      "Ġcoun": 861,
      "ĠCh": 862,
      "Ġper": 863,
      "ĠUnter": 864,
      "Ġcomm": 865,
      "ĠSp": 866,
      "sten": 867,
      "ges": 868,
      "gan": 869,
      "hn": 870,
      "ĠAuf": 871,
      "Ġshould": 872,
      "Ġalle": 873,
      "Ġbet": 874,
      "ahl": 875,
      "ĠHotel": 876,
      "Ġpl": 877,
      "Ġ.": 878,
      "Ġwork": 879,
      "ĠGr": 880,
      "wer": 881,
      "...": 882,
      "ution": 883,
      "lic": 884,
      "ike": 885,
      "Ġ,": 886,
      "Ġnew": 887,
      "ĠDer": 888,
      "ierung": 889,
      "geb": 890,
      "Ġup": 891,
      "eine": 892,
      "Ġcl": 893,
      "ob": 894,
      "ely": 895,
      "zu": 896,
      "ĠSe": 897,
      "land": 898,
      "hmen": 899,
      "auf": 900,
      "ree": 901,
      "ĠFor": 902,
      "hren": 903,
      "ĠJahr": 904,
      "ktion": 905,
      "Ã¤sident": 906,
      "Ġout": 907,
      "Ġdieser": 908,
      "av": 909,
      "igkeit": 910,
      "ĠPres": 911,
      "Ġob": 912,
      "to": 913,
      "ner": 914,
      "ld": 915,
      "olle": 916,
      "Ġjed": 917,
      "ons": 918,
      "reich": 919,
      "pl": 920,
      "Ġpre": 921,
      "Ġcountr": 922,
      "Ġvery": 923,
      "ings": 924,
      "ĠDies": 925,
      "Ġind": 926,
      "Ġmust": 927,
      "ĠEs": 928,
      "Ġinter": 929,
      "Ġzw": 930,
      "ke": 931,
      "Ġwho": 932,
      "ĠKommission": 933,
      "bar": 934,
      "Ġother": 935,
      "ĠdaÃŁ": 936,
      "Ġnoch": 937,
      "Ġprodu": 938,
      "ities": 939,
      "Ã¤hr": 940,
      "formation": 941,
      "Ġma": 942,
      "Ġev": 943,
      "Ġthey": 944,
      "Ġpe": 945,
      "Ġweit": 946,
      "ink": 947,
      "Ġneed": 948,
      "mit": 949,
      "gram": 950,
      "ces": 951,
      "pro": 952,
      "wo": 953,
      "ors": 954,
      "Ġwurde": 955,
      "ater": 956,
      "ments": 957,
      "tell": 958,
      "Ġno": 959,
      "Ġber": 960,
      "schen": 961,
      "Ġmehr": 962,
      "Ġsoll": 963,
      "Ġonly": 964,
      "Ġintern": 965,
      "Ġyear": 966,
      "Ġfe": 967,
      "rat": 968,
      "ĠPresident": 969,
      "Ġbec": 970,
      "Ġcons": 971,
      "Ġsupp": 972,
      "gel": 973,
      "Ġlike": 974,
      "Ġstr": 975,
      "Ġaber": 976,
      "ple": 977,
      "olog": 978,
      "oin": 979,
      "Ġ5": 980,
      "glie": 981,
      "ystem": 982,
      "Ġtime": 983,
      "Ġwenn": 984,
      "Ġabout": 985,
      "Ã¼ssen": 986,
      "ĠPrÃ¤sident": 987,
      "Ġpolit": 988,
      "teil": 989,
      "fe": 990,
      "pos": 991,
      "Ġ4": 992,
      "ible": 993,
      "Ġany": 994,
      "entr": 995,
      "erm": 996,
      "ious": 997,
      "assen": 998,
      "ĠY": 999,
      "ced": 1000,
      "uen": 1001,
      "leich": 1002,
      "Ġprov": 1003,
      ").": 1004,
      "ange": 1005,
      "Ġges": 1006,
      "Ġsehr": 1007,
      "ĠReg": 1008,
      "velop": 1009,
      "xt": 1010,
      "ĠmÃ¼ssen": 1011,
      "lin": 1012,
      "Ġtran": 1013,
      "ry": 1014,
      "ally": 1015,
      "itÃ¤t": 1016,
      "enz": 1017,
      "ject": 1018,
      "Ġunser": 1019,
      "nah": 1020,
      "Ġwo": 1021,
      "alt": 1022,
      "Ġeff": 1023,
      "cess": 1024,
      "Ġsow": 1025,
      "hnen": 1026,
      "Ġra": 1027,
      "iament": 1028,
      "Ã¼tz": 1029,
      "arbeit": 1030,
      "ĠArbeit": 1031,
      "Ġthese": 1032,
      "onder": 1033,
      "ient": 1034,
      "ĠParlament": 1035,
      "ammen": 1036,
      "Ġrec": 1037,
      "Ġserv": 1038,
      "Ġsol": 1039,
      "io": 1040,
      "ĠMitglie": 1041,
      "Ġdire": 1042,
      "Ġoff": 1043,
      "ans": 1044,
      "ular": 1045,
      "ĠMember": 1046,
      "fore": 1047,
      "atz": 1048,
      "Ġvie": 1049,
      "own": 1050,
      "fahr": 1051,
      "Ġhin": 1052,
      "led": 1053,
      "ied": 1054,
      "ibt": 1055,
      "ility": 1056,
      "Ġimport": 1057,
      "usammen": 1058,
      "ring": 1059,
      "ĠSo": 1060,
      "Ġdiesem": 1061,
      "stit": 1062,
      "ĠMen": 1063,
      "als": 1064,
      "Ã¤l": 1065,
      "ph": 1066,
      "erson": 1067,
      "ider": 1068,
      "irst": 1069,
      "ople": 1070,
      "ause": 1071,
      "ures": 1072,
      "aaten": 1073,
      "ÃŁen": 1074,
      "igt": 1075,
      "Ġgegen": 1076,
      "Ġif": 1077,
      "Ġdevelop": 1078,
      "cy": 1079,
      "ism": 1080,
      "Ġla": 1081,
      "Ġsuch": 1082,
      "halten": 1083,
      "ĠUm": 1084,
      "wend": 1085,
      "fol": 1086,
      "Ġreport": 1087,
      "fl": 1088,
      "Ã¤nd": 1089,
      "Ġihre": 1090,
      "ook": 1091,
      "Ġact": 1092,
      "ays": 1093,
      "ĠEuropÃ¤ischen": 1094,
      "unden": 1095,
      "wn": 1096,
      "sche": 1097,
      "Ġpol": 1098,
      "ĠMa": 1099,
      "Ġgr": 1100,
      "iger": 1101,
      "iven": 1102,
      "Ġbis": 1103,
      "etzt": 1104,
      "Ġsub": 1105,
      "ative": 1106,
      "ateg": 1107,
      "dition": 1108,
      "ks": 1109,
      "ific": 1110,
      "Ġmy": 1111,
      "Ġrel": 1112,
      "ĠParliament": 1113,
      "Ġins": 1114,
      "ĠZeit": 1115,
      "Ġover": 1116,
      "ale": 1117,
      "itu": 1118,
      "wor": 1119,
      "Ġ20": 1120,
      "nehmen": 1121,
      "Ġinto": 1122,
      "Ġpeople": 1123,
      "Ġwere": 1124,
      "ĠNe": 1125,
      "Ġihr": 1126,
      "fÃ¼hr": 1127,
      "kte": 1128,
      "Ġwell": 1129,
      "str": 1130,
      "cre": 1131,
      "ices": 1132,
      "iden": 1133,
      "Ġgem": 1134,
      "ĠÃľ": 1135,
      "Ġinternational": 1136,
      "Ġbest": 1137,
      "ken": 1138,
      "ĠAs": 1139,
      "Ã©": 1140,
      "erg": 1141,
      "Ġsome": 1142,
      "),": 1143,
      "Ġviel": 1144,
      "ement": 1145,
      "ĠmÃ¶chte": 1146,
      "bs": 1147,
      "Ġwhat": 1148,
      "Ġuse": 1149,
      "lung": 1150,
      "acht": 1151,
      "cil": 1152,
      "enden": 1153,
      "Ġinv": 1154,
      "ĠMar": 1155,
      "isten": 1156,
      "conom": 1157,
      "ĠMitglied": 1158,
      "ene": 1159,
      "Ġdif": 1160,
      "ĠStates": 1161,
      "Ġhier": 1162,
      "Ġmark": 1163,
      "ĠOr": 1164,
      "Ġsa": 1165,
      "arge": 1166,
      "Ġhigh": 1167,
      "icher": 1168,
      "fr": 1169,
      "Ġher": 1170,
      "ĠCoun": 1171,
      "Ġeines": 1172,
      "uropÃ¤": 1173,
      "ĠIm": 1174,
      "amen": 1175,
      "ĠÃľber": 1176,
      "Ġhotel": 1177,
      "Ġkn": 1178,
      "ou": 1179,
      "rei": 1180,
      "very": 1181,
      "ory": 1182,
      "Ġbed": 1183,
      "ull": 1184,
      "Ġcountries": 1185,
      "Ġfirst": 1186,
      "Ġloc": 1187,
      "Ġthan": 1188,
      "Ġgew": 1189,
      "Ġincl": 1190,
      "Ġvom": 1191,
      "ention": 1192,
      "Ġmost": 1193,
      "ĠMe": 1194,
      "olitik": 1195,
      "zeit": 1196,
      "Ġhel": 1197,
      "Ġwicht": 1198,
      "Ġwhen": 1199,
      "Ġdec": 1200,
      "Ġtr": 1201,
      "Ġhis": 1202,
      "ĠQ": 1203,
      "Ġlie": 1204,
      "Ġpartic": 1205,
      "itte": 1206,
      "pect": 1207,
      "iet": 1208,
      "Ġunder": 1209,
      "esent": 1210,
      "Ġvers": 1211,
      "ace": 1212,
      "Ġthem": 1213,
      "ating": 1214,
      "inn": 1215,
      "ards": 1216,
      "ages": 1217,
      "ĠCouncil": 1218,
      "ĠKon": 1219,
      "Ġdam": 1220,
      "les": 1221,
      "Ġjust": 1222,
      "itz": 1223,
      "ett": 1224,
      "ĠEntw": 1225,
      "sicht": 1226,
      "ĠMenschen": 1227,
      "Ġpolic": 1228,
      "Ġsowie": 1229,
      "Ġwel": 1230,
      "Ġele": 1231,
      "ĠHe": 1232,
      "ĠBericht": 1233,
      "Ġnow": 1234,
      "Ġagain": 1235,
      "ĠeuropÃ¤": 1236,
      "abe": 1237,
      "ond": 1238,
      "Ġsupport": 1239,
      "Ã¤nder": 1240,
      "att": 1241,
      "tre": 1242,
      "Ġaut": 1243,
      "Ġdieses": 1244,
      "Ġgu": 1245,
      "Ġbas": 1246,
      "ats": 1247,
      "Ġimportant": 1248,
      "ights": 1249,
      "lÃ¤": 1250,
      "Ġmake": 1251,
      "Ã¤ch": 1252,
      "ween": 1253,
      "els": 1254,
      "ĠLand": 1255,
      "Ġgibt": 1256,
      "Ġpla": 1257,
      "halt": 1258,
      "Ġeconom": 1259,
      "Ġmany": 1260,
      "ues": 1261,
      "Ġhow": 1262,
      "Ġroom": 1263,
      "kl": 1264,
      "essen": 1265,
      "kommen": 1266,
      "Ġbetween": 1267,
      "ho": 1268,
      "stÃ¼tz": 1269,
      "Ġass": 1270,
      "ĠComm": 1271,
      "fin": 1272,
      "ĠNach": 1273,
      "je": 1274,
      "hand": 1275,
      "Ġpropos": 1276,
      "Ġ6": 1277,
      "oth": 1278,
      "Ġrequ": 1279,
      "Ġmo": 1280,
      "wir": 1281,
      "halb": 1282,
      "Ġfr": 1283,
      "fter": 1284,
      "any": 1285,
      "Ġtechn": 1286,
      "issen": 1287,
      "ives": 1288,
      "igung": 1289,
      "Ġposs": 1290,
      "Ġbecause": 1291,
      "Ã¶s": 1292,
      "ural": 1293,
      "lieÃŁ": 1294,
      "ence": 1295,
      "staaten": 1296,
      "Ġ'": 1297,
      "Ġzwischen": 1298,
      "ware": 1299,
      "Ġleg": 1300,
      "bst": 1301,
      "ĠBed": 1302,
      "ters": 1303,
      "ĠVerb": 1304,
      "Ġtake": 1305,
      "Ġfre": 1306,
      "Ġbereit": 1307,
      "legen": 1308,
      "Ã¶glich": 1309,
      "zie": 1310,
      "ĠPl": 1311,
      "ĠEntwick": 1312,
      "Ġkon": 1313,
      "Ġworld": 1314,
      "ĠFl": 1315,
      "ublic": 1316,
      "Ġmarket": 1317,
      "uer": 1318,
      "Ġpos": 1319,
      "tschaft": 1320,
      "ote": 1321,
      "ful": 1322,
      "arm": 1323,
      "Ġcre": 1324,
      "dr": 1325,
      "ĠEnt": 1326,
      "Ġmuss": 1327,
      "mal": 1328,
      "oint": 1329,
      "cted": 1330,
      "ever": 1331,
      "Ġfo": 1332,
      "rough": 1333,
      "blem": 1334,
      "Ġfind": 1335,
      "zial": 1336,
      "off": 1337,
      "weit": 1338,
      "ath": 1339,
      "Ġsel": 1340,
      "min": 1341,
      "ĠIntern": 1342,
      "ict": 1343,
      "amp": 1344,
      "lear": 1345,
      "hÃ¶r": 1346,
      "Ġop": 1347,
      "Ġson": 1348,
      "Ġunsere": 1349,
      "Ġpar": 1350,
      "Ġnational": 1351,
      "ount": 1352,
      "ĠAll": 1353,
      "omp": 1354,
      "dit": 1355,
      "Ġgood": 1356,
      "dem": 1357,
      "Ġwhere": 1358,
      "Ġkeine": 1359,
      "Ġmin": 1360,
      "ĠGes": 1361,
      "ality": 1362,
      "ĠIhre": 1363,
      "Ġgreat": 1364,
      "Ġbie": 1365,
      "Ġhand": 1366,
      "ĠUS": 1367,
      "vern": 1368,
      "nis": 1369,
      "Ġav": 1370,
      "Ġnat": 1371,
      "ĠIhnen": 1372,
      "ĠArt": 1373,
      "Ġtwo": 1374,
      "rag": 1375,
      "ĠMin": 1376,
      "eschÃ¤": 1377,
      "Ġinformation": 1378,
      "uring": 1379,
      "urn": 1380,
      "Ġemp": 1381,
      "ĠProdu": 1382,
      "rÃ¤": 1383,
      "ĠâĢŀ": 1384,
      "rauch": 1385,
      "achen": 1386,
      "Ġrem": 1387,
      "ium": 1388,
      "Ġevery": 1389,
      "Ã¶ff": 1390,
      "Ġeinz": 1391,
      "Ġverb": 1392,
      "Ġmade": 1393,
      "Ġyears": 1394,
      "Ġhad": 1395,
      "Ġconc": 1396,
      "ÃŁe": 1397,
      "ĠGrund": 1398,
      "Ġanderen": 1399,
      "stand": 1400,
      "amil": 1401,
      "rol": 1402,
      "hm": 1403,
      "Ġmein": 1404,
      "sel": 1405,
      "unkt": 1406,
      "Ġeven": 1407,
      "Ġend": 1408,
      "schie": 1409,
      "aut": 1410,
      "Ġthrough": 1411,
      "laub": 1412,
      "fort": 1413,
      "ĠIf": 1414,
      "air": 1415,
      "ĠEuropa": 1416,
      "Ġway": 1417,
      "Ġ199": 1418,
      "cept": 1419,
      "Ġiss": 1420,
      "Ġsystem": 1421,
      "Ġ[": 1422,
      "geben": 1423,
      "ĠÃĦ": 1424,
      "Ġthose": 1425,
      "Ġproduct": 1426,
      "Ġget": 1427,
      "ision": 1428,
      "ischer": 1429,
      "chten": 1430,
      "ĠZusammen": 1431,
      "lish": 1432,
      "ĠMitgliedstaaten": 1433,
      "forder": 1434,
      "Ġsee": 1435,
      "ession": 1436,
      "ĠFin": 1437,
      "âĢľ": 1438,
      "gend": 1439,
      "ĠRat": 1440,
      "ereich": 1441,
      "Ġsc": 1442,
      "ren": 1443,
      "Ã¤lt": 1444,
      "gung": 1445,
      "Ġ7": 1446,
      "Ġweiter": 1447,
      "Ġange": 1448,
      "ister": 1449,
      "stell": 1450,
      "ower": 1451,
      "ws": 1452,
      "ĠAm": 1453,
      "immer": 1454,
      "weise": 1455,
      "Ġimmer": 1456,
      "lag": 1457,
      "ganis": 1458,
      "ina": 1459,
      "day": 1460,
      "ys": 1461,
      "Ġorder": 1462,
      "Ġpolicy": 1463,
      "Ġmay": 1464,
      "ows": 1465,
      "erein": 1466,
      "Ġtak": 1467,
      "ĠSeit": 1468,
      "Ġdirect": 1469,
      "uÃŁer": 1470,
      "lick": 1471,
      "ĠWenn": 1472,
      "Ġdisc": 1473,
      "ument": 1474,
      "uman": 1475,
      "Ġdann": 1476,
      "ster": 1477,
      "ĠEx": 1478,
      "Ġ8": 1479,
      "hne": 1480,
      "Ġ10": 1481,
      "Ġright": 1482,
      "Ġac": 1483,
      "unity": 1484,
      "ituation": 1485,
      "ĠVorsch": 1486,
      "rif": 1487,
      "spr": 1488,
      "Ġbeing": 1489,
      "âĢĿ": 1490,
      "ivers": 1491,
      "ĠâĢľ": 1492,
      "ital": 1493,
      "Ġfact": 1494,
      "alls": 1495,
      "Ġbeste": 1496,
      "Ġbeg": 1497,
      "Ġnum": 1498,
      "ited": 1499,
      "chts": 1500,
      "ĠBes": 1501,
      "isen": 1502,
      "Ġrest": 1503,
      "Ġke": 1504,
      "ĠThere": 1505,
      "eration": 1506,
      "Ġbelie": 1507,
      "Ġparticular": 1508,
      "Ġappro": 1509,
      "Ġwieder": 1510,
      "Ġdiesen": 1511,
      "nahmen": 1512,
      "000": 1513,
      "Ġdiffer": 1514,
      "Ġdamit": 1515,
      "ĠWh": 1516,
      "ĠHaus": 1517,
      "Ġcent": 1518,
      "gest": 1519,
      "nung": 1520,
      "Ġcour": 1521,
      "Ġger": 1522,
      "Ġcar": 1523,
      "ionen": 1524,
      "ior": 1525,
      "istr": 1526,
      "com": 1527,
      "Ġtrans": 1528,
      "Ġzwe": 1529,
      "Ġinclud": 1530,
      "Ġwurden": 1531,
      "vor": 1532,
      "ĠBereich": 1533,
      "Ġganz": 1534,
      "Ġgesch": 1535,
      "Ġown": 1536,
      "ĠOn": 1537,
      "bal": 1538,
      "ĠGro": 1539,
      "aur": 1540,
      "ĠWelt": 1541,
      "eins": 1542,
      "ĠfÃ¼": 1543,
      "Ġprocess": 1544,
      "isse": 1545,
      "icherheit": 1546,
      "part": 1547,
      "ough": 1548,
      "Ġresp": 1549,
      "ĠFrau": 1550,
      "itt": 1551,
      "ĠDes": 1552,
      "eln": 1553,
      "iness": 1554,
      "Ġdel": 1555,
      "adt": 1556,
      "Ġknow": 1557,
      "ade": 1558,
      "Ġmon": 1559,
      "get": 1560,
      "10": 1561,
      "read": 1562,
      "innen": 1563,
      "zeich": 1564,
      "atter": 1565,
      "ĠIhr": 1566,
      "trag": 1567,
      "Ġcur": 1568,
      "ouse": 1569,
      "old": 1570,
      "ĠDiese": 1571,
      "Ã¤ndern": 1572,
      "Ġbus": 1573,
      "gramm": 1574,
      "elle": 1575,
      "ĠAt": 1576,
      "stitution": 1577,
      "Ġarea": 1578,
      "Ġquest": 1579,
      "Ġexp": 1580,
      "ler": 1581,
      "Ġmain": 1582,
      "zen": 1583,
      "oy": 1584,
      "Ġph": 1585,
      "Ġbu": 1586,
      "Ġkein": 1587,
      "schieden": 1588,
      "ĠHand": 1589,
      "itÃ¤": 1590,
      "Ġunserer": 1591,
      "az": 1592,
      "ool": 1593,
      "hin": 1594,
      "Ġagre": 1595,
      "alk": 1596,
      "ĠCon": 1597,
      "rechen": 1598,
      "ĠGeb": 1599,
      "Ġreal": 1600,
      "Ġ9": 1601,
      "round": 1602,
      "ix": 1603,
      "Ġhelp": 1604,
      "Ġhere": 1605,
      "Ġhabe": 1606,
      "Ġsm": 1607,
      "schafts": 1608,
      "Ġ...": 1609,
      "Ġsondern": 1610,
      "ĠZu": 1611,
      "Ġstand": 1612,
      "eth": 1613,
      "ĠYou": 1614,
      "Ġafter": 1615,
      "ĠGem": 1616,
      "Ġdeb": 1617,
      "Ġcomple": 1618,
      "Ġseine": 1619,
      "ĠInter": 1620,
      "ĠHer": 1621,
      "Ġjedoch": 1622,
      "leg": 1623,
      "Ġpolitical": 1624,
      "piel": 1625,
      "Ġform": 1626,
      "ests": 1627,
      "ince": 1628,
      "tegr": 1629,
      "gesch": 1630,
      "urs": 1631,
      "ĠEuropÃ¤ische": 1632,
      "ruck": 1633,
      "Ġpublic": 1634,
      "Ġplace": 1635,
      "Ġide": 1636,
      "Ġgut": 1637,
      "Ġincre": 1638,
      "eld": 1639,
      "ĠInformation": 1640,
      "Ġconcern": 1641,
      "Ġprote": 1642,
      "Ġpossible": 1643,
      "mittel": 1644,
      "ved": 1645,
      "Ġsame": 1646,
      "ĠBar": 1647,
      "ende": 1648,
      "ently": 1649,
      "ĠBÃ¼r": 1650,
      "Ġsim": 1651,
      "ax": 1652,
      "ktiv": 1653,
      "Ġausge": 1654,
      "Ġetw": 1655,
      "Ġclear": 1656,
      "Ġser": 1657,
      "ĠwÃ¼r": 1658,
      "iron": 1659,
      "bens": 1660,
      "Ã¶glichkeit": 1661,
      "ines": 1662,
      "schlieÃŁ": 1663,
      "ierte": 1664,
      "Ġneue": 1665,
      "Ġcould": 1666,
      "ata": 1667,
      "Ġhuman": 1668,
      "ĠInd": 1669,
      "tens": 1670,
      "ĠMan": 1671,
      "Ġwant": 1672,
      "eral": 1673,
      "Ġheute": 1674,
      "ĠBr": 1675,
      "Ġbef": 1676,
      "Ġdr": 1677,
      "ĠFre": 1678,
      "ĠSte": 1679,
      "line": 1680,
      "fach": 1681,
      "nder": 1682,
      "Ġnumber": 1683,
      "Ġcontin": 1684,
      "lagen": 1685,
      "Ġsay": 1686,
      "Ġoffer": 1687,
      "Ġeconomic": 1688,
      "Ġperson": 1689,
      "Ġdoes": 1690,
      "Ġest": 1691,
      "Ġgleich": 1692,
      "ven": 1693,
      "Ġthen": 1694,
      "Ġdevelopment": 1695,
      "ĠTeil": 1696,
      "Ġopp": 1697,
      "ertain": 1698,
      "Ġwithin": 1699,
      "isk": 1700,
      "Ġeffect": 1701,
      "ĠUnternehmen": 1702,
      "use": 1703,
      "Ġwen": 1704,
      "ÃŁnahmen": 1705,
      "iti": 1706,
      "ustr": 1707,
      "Ġrights": 1708,
      "ĠKolle": 1709,
      "ants": 1710,
      "osten": 1711,
      "tellt": 1712,
      "uro": 1713,
      "raft": 1714,
      "ĠFr": 1715,
      "ĠÃĦnder": 1716,
      "Ġbereits": 1717,
      "ĠFran": 1718,
      "ĠStr": 1719,
      "alen": 1720,
      "ics": 1721,
      "Ġavail": 1722,
      "Ġ15": 1723,
      "Ġtransp": 1724,
      "Ġexam": 1725,
      "Ġfest": 1726,
      "yp": 1727,
      "Ġselbst": 1728,
      "ĠSchl": 1729,
      "Ġagainst": 1730,
      "Ġohne": 1731,
      "Ã¤hl": 1732,
      "Ġmuch": 1733,
      "aup": 1734,
      "hip": 1735,
      "Ġmich": 1736,
      "ĠPre": 1737,
      "Ġsur": 1738,
      "Ġfund": 1739,
      "Ġboth": 1740,
      "Ġval": 1741,
      "Ġused": 1742,
      "ĠĠ": 1743,
      "erk": 1744,
      "ma": 1745,
      "ĠEntwicklung": 1746,
      "ĠBet": 1747,
      "bes": 1748,
      "Ġvis": 1749,
      "lage": 1750,
      "ander": 1751,
      "Ġprof": 1752,
      "ĠHow": 1753,
      "Ġtherefore": 1754,
      "icult": 1755,
      "Ġlang": 1756,
      "ock": 1757,
      "Ġihrer": 1758,
      "Ġwichtig": 1759,
      "licher": 1760,
      "lobal": 1761,
      "utions": 1762,
      "stru": 1763,
      "Ġlevel": 1764,
      "ĠGerm": 1765,
      "Ġsollte": 1766,
      "Ġvar": 1767,
      "Ġsign": 1768,
      "fern": 1769,
      "loy": 1770,
      "Ġhist": 1771,
      "ierten": 1772,
      "erung": 1773,
      "ĠIs": 1774,
      "Ġregion": 1775,
      "Ġmed": 1776,
      "que": 1777,
      "setz": 1778,
      "Ġneuen": 1779,
      "ife": 1780,
      "ĠeuropÃ¤ischen": 1781,
      "viron": 1782,
      "Ġequ": 1783,
      "ftware": 1784,
      "ustom": 1785,
      "ĠHin": 1786,
      "ds": 1787,
      "ulation": 1788,
      "Ġbring": 1789,
      "Ġpra": 1790,
      "Ġfun": 1791,
      "ĠWie": 1792,
      "ivid": 1793,
      "ĠVers": 1794,
      "stÃ¤nd": 1795,
      "ĠJahren": 1796,
      "ep": 1797,
      "Ġplay": 1798,
      "ĠRicht": 1799,
      "ux": 1800,
      "aff": 1801,
      "Ġfull": 1802,
      "Ã¤re": 1803,
      "Ġcr": 1804,
      "satz": 1805,
      "Ġandere": 1806,
      "Ġprovid": 1807,
      "br": 1808,
      "Ġbo": 1809,
      "Ġsocial": 1810,
      "reichen": 1811,
      "urg": 1812,
      "Ġcountry": 1813,
      "Ã¶ffent": 1814,
      "fahren": 1815,
      "ically": 1816,
      "agement": 1817,
      "Ġzwei": 1818,
      "eng": 1819,
      "way": 1820,
      "Ġbre": 1821,
      "Ġeigen": 1822,
      "Ã¶ÃŁ": 1823,
      "ittee": 1824,
      "net": 1825,
      "wert": 1826,
      "Ġconf": 1827,
      "Ġview": 1828,
      "kun": 1829,
      "Ġdenn": 1830,
      "Ġthink": 1831,
      "Ġfinan": 1832,
      "its": 1833,
      "cur": 1834,
      "Ġgroup": 1835,
      "Ġwithout": 1836,
      "Ġlast": 1837,
      "Ġletz": 1838,
      "Ġ18": 1839,
      "Ġpoint": 1840,
      "Ġstill": 1841,
      "wick": 1842,
      "vironment": 1843,
      "Ġexper": 1844,
      "work": 1845,
      "mb": 1846,
      "ĠKl": 1847,
      "ichte": 1848,
      "kehr": 1849,
      "Ã¤ng": 1850,
      "ets": 1851,
      "par": 1852,
      "Ġmeas": 1853,
      "under": 1854,
      "Ġens": 1855,
      "Ġdenen": 1856,
      "immt": 1857,
      "over": 1858,
      "ĠMon": 1859,
      "Ġ12": 1860,
      "eut": 1861,
      "ĠSicherheit": 1862,
      "Ġsollten": 1863,
      "Ġoper": 1864,
      "Ġconsider": 1865,
      "iver": 1866,
      "Ġadv": 1867,
      "esse": 1868,
      "Ġdifferent": 1869,
      "Ġservices": 1870,
      "ĠGen": 1871,
      "ĠFrage": 1872,
      "Ġfinden": 1873,
      "Ġlong": 1874,
      "Ġaccess": 1875,
      "gar": 1876,
      "ĠFe": 1877,
      "Ġgemeins": 1878,
      "Ġpriv": 1879,
      "ffen": 1880,
      "Ġmod": 1881,
      "nahme": 1882,
      "ĠmÃ¶glich": 1883,
      "Ġopt": 1884,
      "fra": 1885,
      "ize": 1886,
      "esen": 1887,
      "entral": 1888,
      "lichkeit": 1889,
      "ists": 1890,
      "ĠPart": 1891,
      "wort": 1892,
      "Ġverschieden": 1893,
      "ohl": 1894,
      "Ġspec": 1895,
      "ER": 1896,
      "res": 1897,
      "Ġers": 1898,
      "ondere": 1899,
      "Ã¤hrend": 1900,
      "hor": 1901,
      "ness": 1902,
      "Ġdown": 1903,
      "ĠPerson": 1904,
      "ationen": 1905,
      "Ġprin": 1906,
      "zeug": 1907,
      "Ġgovern": 1908,
      "Ġfree": 1909,
      "Ġatt": 1910,
      "man": 1911,
      "ritt": 1912,
      "ollow": 1913,
      "Ġavailable": 1914,
      "Ġcap": 1915,
      "Ġgel": 1916,
      "ope": 1917,
      "richt": 1918,
      "Ġrequire": 1919,
      "ĠBÃ¼rger": 1920,
      "aking": 1921,
      "ĠunterstÃ¼tz": 1922,
      "Ġable": 1923,
      "Ġback": 1924,
      "war": 1925,
      "uture": 1926,
      "ude": 1927,
      "ĠDaten": 1928,
      "orte": 1929,
      "Ġbietet": 1930,
      "hol": 1931,
      "ibility": 1932,
      "akt": 1933,
      "ĠTra": 1934,
      "Ġkle": 1935,
      "ready": 1936,
      "atur": 1937,
      "Ġcurr": 1938,
      "ĠKont": 1939,
      "zahl": 1940,
      "pf": 1941,
      "ised": 1942,
      "urther": 1943,
      "ting": 1944,
      "ability": 1945,
      "iÃŁ": 1946,
      "Ġspecial": 1947,
      "Ġbusiness": 1948,
      "alth": 1949,
      "Ġdazu": 1950,
      "ience": 1951,
      "yn": 1952,
      "vers": 1953,
      "ystems": 1954,
      "ĠDem": 1955,
      "Ġsmall": 1956,
      "Ġbefore": 1957,
      "ator": 1958,
      "Ġlook": 1959,
      "gem": 1960,
      "Ġliegt": 1961,
      "Ġviele": 1962,
      "ispiel": 1963,
      "afÃ¼r": 1964,
      "Ġmachen": 1965,
      "Ġallen": 1966,
      "ĠKommiss": 1967,
      "Ġcustom": 1968,
      "ppen": 1969,
      "ienst": 1970,
      "ĠAut": 1971,
      "Ġweil": 1972,
      "Ġben": 1973,
      "Ġpers": 1974,
      "Ġalready": 1975,
      "Ġfuture": 1976,
      "Ġgest": 1977,
      "Ġaller": 1978,
      "Ġbelieve": 1979,
      "ĠMittel": 1980,
      "loss": 1981,
      "Ġze": 1982,
      "ders": 1983,
      "Ġair": 1984,
      "Ġcor": 1985,
      "ahmen": 1986,
      "aben": 1987,
      "une": 1988,
      "ward": 1989,
      "ins": 1990,
      "Ġbek": 1991,
      "tem": 1992,
      "ahre": 1993,
      "press": 1994,
      "ktur": 1995,
      "ĠStand": 1996,
      "cond": 1997,
      "ased": 1998,
      "ctor": 1999,
      "ilt": 2000,
      "Ġsom": 2001,
      "Ġhal": 2002,
      "ctions": 2003,
      "Ġseiner": 2004,
      "]]": 2005,
      "zug": 2006,
      "ves": 2007,
      "Ġcourse": 2008,
      "Ġopen": 2009,
      "Ġtoday": 2010,
      "ĠkÃ¶nn": 2011,
      "Ġdarauf": 2012,
      "ĠThat": 2013,
      "Ġdesign": 2014,
      "gramme": 2015,
      "kten": 2016,
      "esell": 2017,
      "Ġproject": 2018,
      "ante": 2019,
      "agen": 2020,
      "jor": 2021,
      "Ġset": 2022,
      "ismus": 2023,
      "annt": 2024,
      "welt": 2025,
      "ĠMÃ¶glichkeit": 2026,
      "ĠBut": 2027,
      "Ġtoo": 2028,
      "Ġjetzt": 2029,
      "ĠZiel": 2030,
      "Ġinst": 2031,
      "ĠRo": 2032,
      "Ã¤h": 2033,
      "ving": 2034,
      "Ġcann": 2035,
      "Ã¤ÃŁ": 2036,
      "Ġproducts": 2037,
      "Ġet": 2038,
      "Ġservice": 2039,
      "ĠThem": 2040,
      "aher": 2041,
      "ĠFinanz": 2042,
      "ĠgrÃ¶ÃŁ": 2043,
      "Ġeing": 2044,
      "Ġenvironment": 2045,
      "ron": 2046,
      "ĠTo": 2047,
      "Ġfl": 2048,
      "omen": 2049,
      "imin": 2050,
      "itiz": 2051,
      "Ġrespons": 2052,
      "hÃ¤lt": 2053,
      "ĠLage": 2054,
      "ica": 2055,
      "Ġcannot": 2056,
      "Ġfac": 2057,
      "cr": 2058,
      "ĠRahmen": 2059,
      "Ġcertain": 2060,
      "nisse": 2061,
      "zus": 2062,
      "curity": 2063,
      "come": 2064,
      "Ġdata": 2065,
      "mar": 2066,
      "Ġgeht": 2067,
      "Ġgeb": 2068,
      "ĠMaÃŁnahmen": 2069,
      "Ġprev": 2070,
      "tend": 2071,
      "Ã¶l": 2072,
      "other": 2073,
      "Ġschon": 2074,
      "lease": 2075,
      "aterial": 2076,
      "ĠMed": 2077,
      "Ġeinfach": 2078,
      "Ġmir": 2079,
      "olution": 2080,
      "Ġint": 2081,
      "ĠInformationen": 2082,
      "Ġfollow": 2083,
      "okrat": 2084,
      "Ġredu": 2085,
      "Ġseit": 2086,
      "Ġfra": 2087,
      "Ġbro": 2088,
      "ately": 2089,
      "Ġcase": 2090,
      "Ġ0": 2091,
      "ĠAnd": 2092,
      "Ġbin": 2093,
      "chie": 2094,
      "Ġindivid": 2095,
      "operation": 2096,
      "ĠMein": 2097,
      "los": 2098,
      "iving": 2099,
      "Ġneg": 2100,
      "Ġoffers": 2101,
      "Ġkl": 2102,
      "ĠVerein": 2103,
      "co": 2104,
      "Ġeinige": 2105,
      "ĠRechts": 2106,
      "olid": 2107,
      "ĠdafÃ¼r": 2108,
      "Ġregard": 2109,
      "ĠEnerg": 2110,
      "klÃ¤r": 2111,
      "Ġ[[": 2112,
      "Ġeas": 2113,
      "Ġput": 2114,
      "Ġ&": 2115,
      "Ġimpro": 2116,
      "ars": 2117,
      "abei": 2118,
      "Ġquestion": 2119,
      "orn": 2120,
      "tain": 2121,
      "ĠGemein": 2122,
      "raph": 2123,
      "ĠHerrn": 2124,
      "red": 2125,
      "affen": 2126,
      "ĠCommissioner": 2127,
      "Ġvoll": 2128,
      "ungsant": 2129,
      "Ġart": 2130,
      "ential": 2131,
      "Ã¤tz": 2132,
      "ĠTran": 2133,
      "ccess": 2134,
      "Ġter": 2135,
      "Ġje": 2136,
      "EN": 2137,
      "ĠPol": 2138,
      "iber": 2139,
      "ĠInternet": 2140,
      "ually": 2141,
      "ervice": 2142,
      "ĠRuss": 2143,
      "Ġintegr": 2144,
      "isierung": 2145,
      "ified": 2146,
      "ilit": 2147,
      "folg": 2148,
      "eich": 2149,
      "Ġfinancial": 2150,
      "Ġcity": 2151,
      "imes": 2152,
      "Ġreas": 2153,
      "Ġimple": 2154,
      "Ġchange": 2155,
      "Ġrepr": 2156,
      "ahn": 2157,
      "Ġposit": 2158,
      "ĠAmer": 2159,
      "ĠAussch": 2160,
      "ĠStadt": 2161,
      "Ġduring": 2162,
      "grund": 2163,
      "allen": 2164,
      "Ġ%": 2165,
      "ichten": 2166,
      "ĠZimmer": 2167,
      "Ġrev": 2168,
      "Ġcitiz": 2169,
      "utes": 2170,
      "ĠzurÃ¼ck": 2171,
      "Ġihren": 2172,
      "llt": 2173,
      "Ã¼h": 2174,
      "Ã¼nd": 2175,
      "Ġfar": 2176,
      "Ġactiv": 2177,
      "anden": 2178,
      "Ġproblem": 2179,
      "Ġprom": 2180,
      "lex": 2181,
      "Ġinvest": 2182,
      "Ġday": 2183,
      "ove": 2184,
      "ucht": 2185,
      "Ġfol": 2186,
      "Ġsaid": 2187,
      "Ġdeut": 2188,
      "Ġallem": 2189,
      "ĠJahre": 2190,
      "Ġimp": 2191,
      "20": 2192,
      "cing": 2193,
      "ather": 2194,
      "inen": 2195,
      "ichter": 2196,
      "amm": 2197,
      "Ġnun": 2198,
      "Ġlarge": 2199,
      "Ġglobal": 2200,
      "ĠWor": 2201,
      "Ġstat": 2202,
      "ĠUns": 2203,
      "uchen": 2204,
      "Ġmeans": 2205,
      "Ġachie": 2206,
      "Ġ2009": 2207,
      "200": 2208,
      "Ġissue": 2209,
      "Ġenerg": 2210,
      "ĠSh": 2211,
      "kunft": 2212,
      "Ġproposal": 2213,
      "Ġsaf": 2214,
      "Ġel": 2215,
      "bsite": 2216,
      "aum": 2217,
      "Ġexample": 2218,
      "ily": 2219,
      "Ġask": 2220,
      "iele": 2221,
      "scheid": 2222,
      "ĠBei": 2223,
      "lossen": 2224,
      "Ã¤m": 2225,
      "ĠÃĸ": 2226,
      "Ġmeine": 2227,
      "Ġquality": 2228,
      "Ġzusammen": 2229,
      "isl": 2230,
      "reib": 2231,
      "nov": 2232,
      "Ġapplic": 2233,
      "ways": 2234,
      "Ġmajor": 2235,
      "so": 2236,
      "Ġcost": 2237,
      "Ġmember": 2238,
      "besondere": 2239,
      "Ġmodern": 2240,
      "Ġfamil": 2241,
      "Ġentsp": 2242,
      "halts": 2243,
      "heiten": 2244,
      "Ġgef": 2245,
      "ĠFÃ¼r": 2246,
      "Ġmeet": 2247,
      "Ġsince": 2248,
      "Ġbesch": 2249,
      "illion": 2250,
      "punkt": 2251,
      "Ġpresent": 2252,
      "udget": 2253,
      "gress": 2254,
      "Ġsituation": 2255,
      "Ġrooms": 2256,
      "Ġbesonder": 2257,
      "aupt": 2258,
      "Ġstrateg": 2259,
      "Ġdebate": 2260,
      "ĠGo": 2261,
      "iend": 2262,
      "Ġnecess": 2263,
      "ites": 2264,
      "ether": 2265,
      "unter": 2266,
      "ĠverfÃ¼": 2267,
      "ĠHowever": 2268,
      "Ġwollen": 2269,
      "Ġsicher": 2270,
      "ized": 2271,
      "Ġunseren": 2272,
      "amer": 2273,
      "ird": 2274,
      "fÃ¼hrt": 2275,
      "ĠKin": 2276,
      "antwort": 2277,
      "ĠGew": 2278,
      "ĠPal": 2279,
      "org": 2280,
      "aat": 2281,
      "Ã¡": 2282,
      "Ġtechnolog": 2283,
      "ĠEine": 2284,
      "ĠBo": 2285,
      "Ġeinge": 2286,
      "ĠAd": 2287,
      "ash": 2288,
      "ilities": 2289,
      "leist": 2290,
      "Ġchild": 2291,
      "fts": 2292,
      "oren": 2293,
      "ule": 2294,
      "ktionen": 2295,
      "ĠOur": 2296,
      "ĠKommissar": 2297,
      "Ġcontr": 2298,
      "Ġamend": 2299,
      "Ġcommon": 2300,
      "Ġeng": 2301,
      "blems": 2302,
      "ĠwÃ¼rde": 2303,
      "eschÃ¤ft": 2304,
      "ĠWith": 2305,
      "ĠSpe": 2306,
      "angen": 2307,
      "pre": 2308,
      "Ġeach": 2309,
      "Ġadop": 2310,
      "Ġche": 2311,
      "ĠBest": 2312,
      "etzen": 2313,
      "Ġpass": 2314,
      "Ġincluding": 2315,
      "licht": 2316,
      "haf": 2317,
      "ĠGesch": 2318,
      "ĠPh": 2319,
      "fass": 2320,
      "Ġgar": 2321,
      "omat": 2322,
      "Ġpower": 2323,
      "ĠCommittee": 2324,
      "ĠGer": 2325,
      "Ġcompet": 2326,
      "ĠWer": 2327,
      "ell": 2328,
      "ĠEng": 2329,
      "ache": 2330,
      "immung": 2331,
      "ĠArbeits": 2332,
      "Ġcitizens": 2333,
      "ĠParlaments": 2334,
      "reit": 2335,
      "Ġcolle": 2336,
      "ĠPolitik": 2337,
      "Ġref": 2338,
      "cip": 2339,
      "vention": 2340,
      "ĠwÃ¤hrend": 2341,
      "tellen": 2342,
      "Ġ30": 2343,
      "Ġstehen": 2344,
      "Ġetwas": 2345,
      "genommen": 2346,
      "tt": 2347,
      "opp": 2348,
      "Ġthree": 2349,
      "bed": 2350,
      "aurant": 2351,
      "ablish": 2352,
      "Ġstay": 2353,
      "ĠForm": 2354,
      "ĠUr": 2355,
      "Ġsagen": 2356,
      "Ġfound": 2357,
      "Ġallow": 2358,
      "Ġauthor": 2359,
      "ining": 2360,
      "Ġareas": 2361,
      "ipp": 2362,
      "gew": 2363,
      "Ġobject": 2364,
      "Ġcult": 2365,
      "ains": 2366,
      "Ġrespect": 2367,
      "Ġnext": 2368,
      "ĠVorschlag": 2369,
      "Ġmeasures": 2370,
      "orth": 2371,
      "gangen": 2372,
      "ĠUnd": 2373,
      "Ġ/": 2374,
      "ĠEuro": 2375,
      "Ġstud": 2376,
      "Ġdoch": 2377,
      "ĠRes": 2378,
      "¿½": 2379,
      "ï¿½": 2380,
      "Ġsozial": 2381,
      "ĠBild": 2382,
      "Ġgive": 2383,
      "oten": 2384,
      "Ġorganis": 2385,
      "zept": 2386,
      "Ġfew": 2387,
      "Ġbr": 2388,
      "ĠÐ": 2389,
      "zw": 2390,
      "ode": 2391,
      "ordnung": 2392,
      "ugen": 2393,
      "Ġrece": 2394,
      "Ġdemoc": 2395,
      "ĠÂ": 2396,
      "ands": 2397,
      "Ġensure": 2398,
      "uge": 2399,
      "linie": 2400,
      "Ġresult": 2401,
      "Ġdiscuss": 2402,
      "Ġkomm": 2403,
      "asch": 2404,
      "rache": 2405,
      "Ġerm": 2406,
      "ught": 2407,
      "Ġfurther": 2408,
      "Ġprovide": 2409,
      "Ġhistor": 2410,
      "Ã¼rlich": 2411,
      "Ġenergy": 2412,
      "Ġthank": 2413,
      "Ġpres": 2414,
      "ination": 2415,
      "ĠDeut": 2416,
      "ĠLÃ¤nder": 2417,
      "Ġtun": 2418,
      "schaften": 2419,
      "Ġwissen": 2420,
      "iff": 2421,
      "In": 2422,
      "gleich": 2423,
      "Ġtaken": 2424,
      "Ġerst": 2425,
      "Ġinsbesondere": 2426,
      "Ġsuccess": 2427,
      "ĠMill": 2428,
      "Ġfil": 2429,
      "Ġbuild": 2430,
      "falls": 2431,
      "Ġmus": 2432,
      "unde": 2433,
      "Ġdra": 2434,
      "ĠUnterstÃ¼tz": 2435,
      "Ġagreement": 2436,
      "Ġcal": 2437,
      "ĠDurch": 2438,
      "Ġerhalten": 2439,
      "Ġcontrol": 2440,
      "Ġkom": 2441,
      "stellung": 2442,
      "anken": 2443,
      "schl": 2444,
      "Ġaddition": 2445,
      "iate": 2446,
      "ĠLÃ¶s": 2447,
      "Ġeinmal": 2448,
      "ek": 2449,
      "ĠVerfÃ¼": 2450,
      "agt": 2451,
      "Ġwaren": 2452,
      "indet": 2453,
      "Ġgrow": 2454,
      "Ġemploy": 2455,
      "ziel": 2456,
      "itor": 2457,
      "ĠChina": 2458,
      "ĠÃ¶ffent": 2459,
      "ĠQual": 2460,
      "Ġdet": 2461,
      "trÃ¤": 2462,
      "lungs": 2463,
      "ĠQu": 2464,
      "ĠFall": 2465,
      "Ġpay": 2466,
      "ases": 2467,
      "gre": 2468,
      "ĠauÃŁer": 2469,
      "Ġestablish": 2470,
      "Ġposition": 2471,
      "igin": 2472,
      "ĠProblem": 2473,
      "por": 2474,
      "ilfe": 2475,
      "Ġread": 2476,
      "cken": 2477,
      "ĠRest": 2478,
      "Ġabs": 2479,
      "legt": 2480,
      "itÃ¤ten": 2481,
      "Ġkommen": 2482,
      "ĠItal": 2483,
      "ĠKunden": 2484,
      "ĠTechn": 2485,
      "ĠZug": 2486,
      "ĠBl": 2487,
      "gang": 2488,
      "ditions": 2489,
      "igten": 2490,
      "Ġlaw": 2491,
      "Ġvo": 2492,
      "ĠGroup": 2493,
      "ohn": 2494,
      "uff": 2495,
      "Ġbeim": 2496,
      "Ġdu": 2497,
      "Ġcome": 2498,
      "Ġlink": 2499,
      "ules": 2500,
      "bo": 2501,
      "pend": 2502,
      "Ġpop": 2503,
      "ling": 2504,
      "Ġopport": 2505,
      "Ġ11": 2506,
      "Ġsk": 2507,
      "Ġinde": 2508,
      "jekt": 2509,
      "ĠMarkt": 2510,
      "arte": 2511,
      "aren": 2512,
      "arn": 2513,
      "Ġersten": 2514,
      "Ġshall": 2515,
      "ums": 2516,
      "Ġproblems": 2517,
      "ĠMus": 2518,
      "Ġho": 2519,
      "rop": 2520,
      "Ġ25": 2521,
      "ements": 2522,
      "Ġverw": 2523,
      "ross": 2524,
      "ĠZusammenarbeit": 2525,
      "Ġcompany": 2526,
      "Ġnecessary": 2527,
      "uten": 2528,
      "ĠUnterstÃ¼tzung": 2529,
      "Ġdid": 2530,
      "igkeiten": 2531,
      "ĠSchw": 2532,
      "Ġ14": 2533,
      "Ġschw": 2534,
      "Ġterr": 2535,
      "Ġlassen": 2536,
      "arten": 2537,
      "utzen": 2538,
      "Ġprincip": 2539,
      "Ġ|": 2540,
      "ruct": 2541,
      "politik": 2542,
      "esser": 2543,
      "unic": 2544,
      "Ġkey": 2545,
      "ott": 2546,
      "fre": 2547,
      "Ġbegr": 2548,
      "Ġdrei": 2549,
      "med": 2550,
      "umen": 2551,
      "Ġgiven": 2552,
      "ises": 2553,
      "ĠgroÃŁ": 2554,
      "ĠX": 2555,
      "ĠSpiel": 2556,
      "lemen": 2557,
      "Ġlegisl": 2558,
      "Ġbudget": 2559,
      "ĠNamen": 2560,
      "ĠÃ¤": 2561,
      "Ġsecurity": 2562,
      "fung": 2563,
      "Ġpract": 2564,
      "AT": 2565,
      "tschafts": 2566,
      "Ġem": 2567,
      "bau": 2568,
      "elf": 2569,
      "ĠCl": 2570,
      "Ġgeben": 2571,
      "ĠMad": 2572,
      "glichen": 2573,
      "Ġinvol": 2574,
      "fang": 2575,
      "ichts": 2576,
      "esellschaft": 2577,
      "Ġhealth": 2578,
      "Ġwirk": 2579,
      "Ġret": 2580,
      "ĠLa": 2581,
      "Ã¶rder": 2582,
      "Ġhope": 2583,
      "ĠUmwelt": 2584,
      "ĠÃĦnderungsant": 2585,
      "ĠProble": 2586,
      "ĠStra": 2587,
      "Ġwhy": 2588,
      "Ġhowever": 2589,
      "ising": 2590,
      "Ġsecond": 2591,
      "Ġentwick": 2592,
      "Ġchar": 2593,
      "lungen": 2594,
      "AN": 2595,
      "Ġlead": 2596,
      "orgen": 2597,
      "asse": 2598,
      "burg": 2599,
      "Ġverl": 2600,
      "bewer": 2601,
      "joy": 2602,
      "iety": 2603,
      "iter": 2604,
      "ively": 2605,
      "Ġwhile": 2606,
      "isation": 2607,
      "ĠTr": 2608,
      "ĠRecht": 2609,
      "wards": 2610,
      "fte": 2611,
      "ared": 2612,
      "Ġcooperation": 2613,
      "Ġbl": 2614,
      "Ġbesteht": 2615,
      "urz": 2616,
      "Ġ16": 2617,
      "lect": 2618,
      "gether": 2619,
      "nell": 2620,
      "Ġwirtschaft": 2621,
      "Ġir": 2622,
      "rodu": 2623,
      "fÃ¼hrung": 2624,
      "Ġlocated": 2625,
      "ave": 2626,
      "Ġwish": 2627,
      "Ġander": 2628,
      "ĠDeb": 2629,
      "orm": 2630,
      "Ġstart": 2631,
      "ĠDienst": 2632,
      "Ġgra": 2633,
      "Ġlife": 2634,
      "ald": 2635,
      "Ġprotection": 2636,
      "IN": 2637,
      "ES": 2638,
      "Ġimplement": 2639,
      "ĠTag": 2640,
      "schied": 2641,
      "Ġtradition": 2642,
      "ches": 2643,
      "Ġrefer": 2644,
      "ĠLÃ¤ndern": 2645,
      "ury": 2646,
      "Ġalways": 2647,
      "altung": 2648,
      "ĠfÃ¼hren": 2649,
      "Ġneeds": 2650,
      "Ġcomplete": 2651,
      "ĠSw": 2652,
      "ĠKo": 2653,
      "wendung": 2654,
      "ĠGeschÃ¤": 2655,
      "von": 2656,
      "Ġsteht": 2657,
      "Ġwrit": 2658,
      "text": 2659,
      "Ġsehen": 2660,
      "Ġseinen": 2661,
      "Ġ17": 2662,
      "ried": 2663,
      "zieh": 2664,
      "ĠFragen": 2665,
      "ĠVol": 2666,
      "ĠDa": 2667,
      "Ġinform": 2668,
      "Ġvote": 2669,
      "ĠSystem": 2670,
      "kon": 2671,
      "ĠPort": 2672,
      "ĠThey": 2673,
      "ĠRed": 2674,
      "ty": 2675,
      "earch": 2676,
      "ique": 2677,
      "Ġcomb": 2678,
      "Ġstatt": 2679,
      "ogen": 2680,
      "Ġbeh": 2681,
      "ĠHouse": 2682,
      "hÃ¤ng": 2683,
      "ĠOb": 2684,
      "ĠBesch": 2685,
      "ppe": 2686,
      "Ġsens": 2687,
      "Ã¶t": 2688,
      "Ġakt": 2689,
      "Ġdiff": 2690,
      "ĠUnited": 2691,
      "ĠBel": 2692,
      "ĠDar": 2693,
      "cell": 2694,
      "Ġbetter": 2695,
      "ĠwÃ¤re": 2696,
      "kre": 2697,
      "Ã¤tze": 2698,
      "tion": 2699,
      "stellen": 2700,
      "ustrie": 2701,
      "Ġmult": 2702,
      "ĠBeit": 2703,
      "ivil": 2704,
      "ca": 2705,
      "dress": 2706,
      "ettbewer": 2707,
      "Ġdabei": 2708,
      "ichterst": 2709,
      "Ġtre": 2710,
      "zess": 2711,
      "Ã¤d": 2712,
      "ctive": 2713,
      "Ġaction": 2714,
      "by": 2715,
      "Ġinterest": 2716,
      "schein": 2717,
      "gaben": 2718,
      "Ġaccount": 2719,
      "alle": 2720,
      "ĠKollegen": 2721,
      "ĠLebens": 2722,
      "ĠNot": 2723,
      "arch": 2724,
      "ialog": 2725,
      "Ġglaub": 2726,
      "iation": 2727,
      "Ġnet": 2728,
      "ĠgehÃ¶r": 2729,
      "spro": 2730,
      "zÃ¼": 2731,
      "Ġ2008": 2732,
      "Ġ2010": 2733,
      "Ġmen": 2734,
      "ĠhÃ¶": 2735,
      "ĠKr": 2736,
      "Ġlegal": 2737,
      "bereich": 2738,
      "Ġfiel": 2739,
      "Ã¤mp": 2740,
      "Ġusing": 2741,
      "cher": 2742,
      "Ġletzten": 2743,
      "iste": 2744,
      "Ġcho": 2745,
      "ĠEnergie": 2746,
      "Ġfav": 2747,
      "rechte": 2748,
      "Ġworden": 2749,
      "ĠCommunity": 2750,
      "sequ": 2751,
      "ĠRegierung": 2752,
      "ĠKom": 2753,
      "Ġdefin": 2754,
      "uft": 2755,
      "ĠmuÃŁ": 2756,
      "enten": 2757,
      "blick": 2758,
      "ikan": 2759,
      "iod": 2760,
      "less": 2761,
      "ĠBedeut": 2762,
      "obil": 2763,
      "Ġble": 2764,
      "ierungs": 2765,
      "Ġ50": 2766,
      "Ġmov": 2767,
      "undheit": 2768,
      "Ġsing": 2769,
      "Ġconsum": 2770,
      "eite": 2771,
      "rÃ¤n": 2772,
      "St": 2773,
      "gehen": 2774,
      "ingungen": 2775,
      "clus": 2776,
      "Ġreach": 2777,
      "ĠSk": 2778,
      "Ġbased": 2779,
      "Ġaround": 2780,
      "Ġ13": 2781,
      "ĠWas": 2782,
      "Ġconne": 2783,
      "ustry": 2784,
      "Ġtransport": 2785,
      "Ã¶lk": 2786,
      "ĠgroÃŁen": 2787,
      "ĠSer": 2788,
      "iges": 2789,
      "gabe": 2790,
      "Ġderen": 2791,
      "abil": 2792,
      "ĠMrs": 2793,
      "ĠVerfÃ¼gung": 2794,
      "asser": 2795,
      "ĠgroÃŁe": 2796,
      "gestellt": 2797,
      "ĠRom": 2798,
      "Ġwelche": 2799,
      "ĠWhat": 2800,
      "markt": 2801,
      "Ġterms": 2802,
      "Ġworking": 2803,
      "genden": 2804,
      "Ġcurrent": 2805,
      "Ġadd": 2806,
      "ify": 2807,
      "ĠEntscheid": 2808,
      "Ġmet": 2809,
      "ĠGu": 2810,
      "ĠBedeutung": 2811,
      "ĠUSA": 2812,
      "Ġrep": 2813,
      "pecial": 2814,
      "Ġinner": 2815,
      "ĠSeite": 2816,
      "ervor": 2817,
      "ged": 2818,
      "Ġproduction": 2819,
      "Ġshort": 2820,
      "ĠErgeb": 2821,
      "ĠFamil": 2822,
      "Ġbecome": 2823,
      "Ġrapp": 2824,
      "ĠRegion": 2825,
      "lev": 2826,
      "ĠHier": 2827,
      "Ġwhether": 2828,
      "racht": 2829,
      "ĠWhen": 2830,
      "uments": 2831,
      "offe": 2832,
      "Ġless": 2833,
      "Ġparticularly": 2834,
      "isher": 2835,
      "Ġcrit": 2836,
      "Ġnon": 2837,
      "eder": 2838,
      "Ġcentre": 2839,
      "ĠThese": 2840,
      "hof": 2841,
      "Ġlim": 2842,
      "Ġindividual": 2843,
      "Ġextre": 2844,
      "Ġdef": 2845,
      "Ġtogether": 2846,
      "Ġdifficult": 2847,
      "Ġbel": 2848,
      "of": 2849,
      "Ġvisit": 2850,
      "Ġanother": 2851,
      "ĠAber": 2852,
      "Ġnear": 2853,
      "Ġsl": 2854,
      "uter": 2855,
      "load": 2856,
      "ĠFol": 2857,
      "Ã¼nst": 2858,
      "ferenz": 2859,
      "ĠInternational": 2860,
      "kauf": 2861,
      "Ġdist": 2862,
      "Ġstate": 2863,
      "Ġ24": 2864,
      "ĠSchutz": 2865,
      "bild": 2866,
      "Ġtrade": 2867,
      "immen": 2868,
      "Ġwater": 2869,
      "Ġzahl": 2870,
      "osition": 2871,
      "druck": 2872,
      "Ġclos": 2873,
      "ĠAuch": 2874,
      "igent": 2875,
      "Ġ100": 2876,
      "Ġhim": 2877,
      "ĠKinder": 2878,
      "Ġresearch": 2879,
      "ĠBus": 2880,
      "ĠAls": 2881,
      "anies": 2882,
      "Ġear": 2883,
      "Ġcare": 2884,
      "Ġrapporte": 2885,
      "ĠTur": 2886,
      "Ġchildren": 2887,
      "ĠBen": 2888,
      "ĠAir": 2889,
      "ĠRegel": 2890,
      "ĠBeispiel": 2891,
      "Ġbene": 2892,
      "Ġbeach": 2893,
      "Ġnotwend": 2894,
      "Ġcontrib": 2895,
      "Ġwhole": 2896,
      "bene": 2897,
      "Ġexist": 2898,
      "ĠVertrag": 2899,
      "ĠMal": 2900,
      "ĠBerichterst": 2901,
      "pecially": 2902,
      "tellung": 2903,
      "Ġtour": 2904,
      "Ð¾": 2905,
      "Ġissues": 2906,
      "room": 2907,
      "Ġlocal": 2908,
      "Ġjeder": 2909,
      "Ġbieten": 2910,
      "ners": 2911,
      "Ġhervor": 2912,
      "akes": 2913,
      "astr": 2914,
      "Ġ2007": 2915,
      "ĠUN": 2916,
      "bt": 2917,
      "Ġdavon": 2918,
      "ĠThema": 2919,
      "iar": 2920,
      "xim": 2921,
      "Ġconditions": 2922,
      "ĠService": 2923,
      "entrum": 2924,
      "arante": 2925,
      "ots": 2926,
      "ĠZahl": 2927,
      "Ġspecific": 2928,
      "Ġfriend": 2929,
      "ckt": 2930,
      "Ã¼t": 2931,
      "leit": 2932,
      "Ġreason": 2933,
      "Ġricht": 2934,
      "ĠdarÃ¼ber": 2935,
      "ames": 2936,
      "Ġentfern": 2937,
      "atte": 2938,
      "Ġkm": 2939,
      "ON": 2940,
      "ĠWirtschafts": 2941,
      "Ġerforder": 2942,
      "Ġenjoy": 2943,
      "iew": 2944,
      "Ġcall": 2945,
      "ultur": 2946,
      "ĠStud": 2947,
      "Ġeben": 2948,
      "ĠSan": 2949,
      "Ġaff": 2950,
      "Ġshow": 2951,
      "ording": 2952,
      "Ġsubject": 2953,
      "vest": 2954,
      "orts": 2955,
      "Ġbook": 2956,
      "Ġstellen": 2957,
      "Ġann": 2958,
      "Ġbew": 2959,
      "ĠgegenÃ¼ber": 2960,
      "hÃ¶": 2961,
      "ĠNo": 2962,
      "rieden": 2963,
      "adies": 2964,
      "Ġaddress": 2965,
      "kungen": 2966,
      "Ġdaher": 2967,
      "Ġalles": 2968,
      "Ġsystems": 2969,
      "ody": 2970,
      "ton": 2971,
      "ĠGÃ¤": 2972,
      "ĠProbleme": 2973,
      "ĠFrauen": 2974,
      "Ġrole": 2975,
      "ika": 2976,
      "Ġtax": 2977,
      "Ġvarious": 2978,
      "ĠEl": 2979,
      "ikel": 2980,
      "ennt": 2981,
      "ours": 2982,
      "Ġschnell": 2983,
      "ĠWeise": 2984,
      "Ġbrauch": 2985,
      "ufen": 2986,
      "ategor": 2987,
      "ĠFahr": 2988,
      "ails": 2989,
      "Ġeigenen": 2990,
      "Ġrun": 2991,
      "ĠEUR": 2992,
      "ĠViel": 2993,
      "Ġexperience": 2994,
      "ĠLie": 2995,
      "fÃ¤h": 2996,
      "Ġwomen": 2997,
      "Ġgesam": 2998,
      "wirtschaft": 2999,
      "Ġorgan": 3000,
      "ĠComp": 3001,
      "gemein": 3002,
      "Ġpage": 3003,
      "ĠGerman": 3004,
      "Ġcompanies": 3005,
      "veral": 3006,
      "Ġsowohl": 3007,
      "Ġold": 3008,
      "Ġstep": 3009,
      "Ġur": 3010,
      "Ġindustry": 3011,
      "ĠMark": 3012,
      "ĠWahl": 3013,
      "ĠHaushalts": 3014,
      "isches": 3015,
      "ĠFort": 3016,
      "Ġsector": 3017,
      "isions": 3018,
      "Ã³": 3019,
      "ÃŃ": 3020,
      "Ġpolitischen": 3021,
      "hang": 3022,
      "Ġbasis": 3023,
      "Ġguarante": 3024,
      "schutz": 3025,
      "50": 3026,
      "ĠLin": 3027,
      "Ġbefindet": 3028,
      "Ġweitere": 3029,
      "ength": 3030,
      "Ġaim": 3031,
      "ĠWeg": 3032,
      "row": 3033,
      "ĠnÃ¤ch": 3034,
      "sen": 3035,
      "roll": 3036,
      "Ġbenef": 3037,
      "aster": 3038,
      "ĠNew": 3039,
      "esehen": 3040,
      "ĠkÃ¶nnte": 3041,
      "Ġpat": 3042,
      "ĠEnde": 3043,
      "Ġocc": 3044,
      "ĠIhrer": 3045,
      "Ġdort": 3046,
      "oney": 3047,
      "Ġerreichen": 3048,
      "itiative": 3049,
      "Ġpack": 3050,
      "Ġcomfort": 3051,
      "Ġbeaut": 3052,
      "Ġorigin": 3053,
      "neten": 3054,
      "Ġprofession": 3055,
      "irm": 3056,
      "thing": 3057,
      "Ġhatte": 3058,
      "Ġreally": 3059,
      "Ġmeiner": 3060,
      "imate": 3061,
      "Ġdi": 3062,
      "chan": 3063,
      "Ġdeal": 3064,
      "Ġmatter": 3065,
      "Ġwirklich": 3066,
      "ĠnatÃ¼rlich": 3067,
      "Ġcommit": 3068,
      "geord": 3069,
      "rift": 3070,
      "lock": 3071,
      "Ġcol": 3072,
      "Ġarbeit": 3073,
      "reaty": 3074,
      "Ġnie": 3075,
      "ĠFun": 3076,
      "ĠHaupt": 3077,
      "sk": 3078,
      "Ġtyp": 3079,
      "Ġbreak": 3080,
      "Ġthird": 3081,
      "Ġbesonders": 3082,
      "Ġdistr": 3083,
      "Ġinnov": 3084,
      "ritte": 3085,
      "Ġtot": 3086,
      "Ġbar": 3087,
      "Ġmonth": 3088,
      "Ġprior": 3089,
      "ably": 3090,
      "riften": 3091,
      "gende": 3092,
      "Ġespecially": 3093,
      "ĠZukunft": 3094,
      "ĠGeschÃ¤fts": 3095,
      "ino": 3096,
      "ived": 3097,
      "Ġstaff": 3098,
      "ĠAusschuss": 3099,
      "Ġihnen": 3100,
      "Ġmembers": 3101,
      "Ġclose": 3102,
      "Ġgovernment": 3103,
      "ances": 3104,
      "ĠStaaten": 3105,
      "Ġperiod": 3106,
      "til": 3107,
      "Ġdone": 3108,
      "Ġgent": 3109,
      "Ġverschiedenen": 3110,
      "Ġdoc": 3111,
      "ĠGegen": 3112,
      "ĠunterstÃ¼tzen": 3113,
      "ĠForsch": 3114,
      "30": 3115,
      "reg": 3116,
      "ĠAlle": 3117,
      "AR": 3118,
      "ĠMehr": 3119,
      "Ġproced": 3120,
      "cellent": 3121,
      "ifiz": 3122,
      "ization": 3123,
      "Ġmot": 3124,
      "Ġentfernt": 3125,
      "ety": 3126,
      "Ġfood": 3127,
      "ĠDeutsch": 3128,
      "app": 3129,
      "ĠPark": 3130,
      "finden": 3131,
      "Ã¼nft": 3132,
      "ograph": 3133,
      "Ġhoch": 3134,
      "ĠProdukt": 3135,
      "treten": 3136,
      "dings": 3137,
      "Ġinnerhalb": 3138,
      "zuf": 3139,
      "Ġtop": 3140,
      "ival": 3141,
      "ĠZwe": 3142,
      "ides": 3143,
      "ething": 3144,
      "werk": 3145,
      "ima": 3146,
      "ican": 3147,
      "Ġpersonal": 3148,
      "spl": 3149,
      "Ġcreate": 3150,
      "Ġnegot": 3151,
      "ĠSituation": 3152,
      "Ġfeat": 3153,
      "ĠSeiten": 3154,
      "ober": 3155,
      "ai": 3156,
      "Ġvielen": 3157,
      "Ġlocation": 3158,
      "Ġteil": 3159,
      "Ġ:": 3160,
      "Ġturn": 3161,
      "19": 3162,
      "Ġprivate": 3163,
      "kung": 3164,
      "neh": 3165,
      "ĠRolle": 3166,
      "Ġsite": 3167,
      "ĠJan": 3168,
      "Ġperform": 3169,
      "Ġinstit": 3170,
      "amt": 3171,
      "Ġrepresent": 3172,
      "Ġple": 3173,
      "asing": 3174,
      "Ġapproach": 3175,
      "Ġpress": 3176,
      "icient": 3177,
      "raum": 3178,
      "IT": 3179,
      "Ġsum": 3180,
      "ichtet": 3181,
      "Ġgener": 3182,
      "ĠProgramm": 3183,
      "Ġenter": 3184,
      "Ġbetr": 3185,
      "Ġprop": 3186,
      "Ġzwar": 3187,
      "\".": 3188,
      "inter": 3189,
      "Ġsoc": 3190,
      "scheiden": 3191,
      "indung": 3192,
      "duc": 3193,
      "ĠHotels": 3194,
      "Ġreform": 3195,
      "ĠWettbewer": 3196,
      "weisen": 3197,
      "\",": 3198,
      "Ġevent": 3199,
      "oment": 3200,
      "ences": 3201,
      "ension": 3202,
      "Ġnor": 3203,
      "Ġwelt": 3204,
      "Ġinternationalen": 3205,
      "Ġamong": 3206,
      "uc": 3207,
      "Ġmillion": 3208,
      "ĠTour": 3209,
      "ĠFest": 3210,
      "fast": 3211,
      "Ġjob": 3212,
      "Ġsingle": 3213,
      "ec": 3214,
      "Ġpoin": 3215,
      "Ġlo": 3216,
      "Ġstar": 3217,
      "Ġitself": 3218,
      "Ġdecision": 3219,
      "zip": 3220,
      "ordin": 3221,
      "Ġsomething": 3222,
      "Ã¼d": 3223,
      "iol": 3224,
      "ults": 3225,
      "ĠTerr": 3226,
      "Ġbestimm": 3227,
      "Ġlangu": 3228,
      "ĠGru": 3229,
      "Ġseveral": 3230,
      "ĠmÃ¶chten": 3231,
      "lands": 3232,
      "Ã¼hr": 3233,
      "olf": 3234,
      "ĠDire": 3235,
      "Ġstruct": 3236,
      "Ġdoub": 3237,
      "ktor": 3238,
      "ĠChr": 3239,
      "Ġgeneral": 3240,
      "ĠAfr": 3241,
      "ift": 3242,
      "eign": 3243,
      "Ġlist": 3244,
      "Ġinstall": 3245,
      "Ġresour": 3246,
      "Ġmaterial": 3247,
      "Ġfavour": 3248,
      "uellen": 3249,
      "ĠGermany": 3250,
      "eiten": 3251,
      "ittle": 3252,
      "ians": 3253,
      "onds": 3254,
      "Ġrapporteur": 3255,
      "ĠDisk": 3256,
      "isis": 3257,
      "ĠRichtlinie": 3258,
      "oor": 3259,
      "tember": 3260,
      "Ġtown": 3261,
      "ĠIhren": 3262,
      "ĠSoftware": 3263,
      "Ġaufge": 3264,
      "ĠOp": 3265,
      "ĠVerbrauch": 3266,
      "Ġdirekt": 3267,
      "uth": 3268,
      "Ã¤nde": 3269,
      "Ġmaking": 3270,
      "Ġcontinue": 3271,
      "atch": 3272,
      "Ġhinaus": 3273,
      "ĠWoch": 3274,
      "ĠdÃ¼r": 3275,
      "wh": 3276,
      "'t": 3277,
      "Ġprogramme": 3278,
      "rael": 3279,
      "mework": 3280,
      "Ġgl": 3281,
      "Ġresolution": 3282,
      "ĠAbst": 3283,
      "mos": 3284,
      "ĠStrateg": 3285,
      "wÃ¤r": 3286,
      "Ġenc": 3287,
      "Ġleast": 3288,
      "ĠSu": 3289,
      "ĠNutz": 3290,
      "eg": 3291,
      "ification": 3292,
      "Ġautomat": 3293,
      "Ġaccept": 3294,
      "Ġgentlemen": 3295,
      "Ġfollowing": 3296,
      "Ġintrodu": 3297,
      "Ġshe": 3298,
      "ĠKÃ¼": 3299,
      "yl": 3300,
      "cel": 3301,
      "sprache": 3302,
      "iations": 3303,
      "Ġexcellent": 3304,
      "ĠWind": 3305,
      "wÃ¤": 3306,
      "Ġaway": 3307,
      "Ġprogress": 3308,
      "Ġserious": 3309,
      "Ġpeace": 3310,
      "Ġrelations": 3311,
      "Ġlet": 3312,
      "Ġgoing": 3313,
      "Ġoften": 3314,
      "hens": 3315,
      "Ġkind": 3316,
      "IS": 3317,
      "Ġopin": 3318,
      "nehmer": 3319,
      "Ġhome": 3320,
      "Ġtext": 3321,
      "erien": 3322,
      "met": 3323,
      "Ġplan": 3324,
      "ativen": 3325,
      "miss": 3326,
      "Ġsup": 3327,
      "Ġmanagement": 3328,
      "Ġ2000": 3329,
      "Ġmar": 3330,
      "ifen": 3331,
      "Ġname": 3332,
      "ĠRÃ¼ck": 3333,
      "auer": 3334,
      "Ġerste": 3335,
      "atives": 3336,
      "let": 3337,
      "ĠCan": 3338,
      "Ġunderstand": 3339,
      "Ġfamily": 3340,
      "Ġkonn": 3341,
      "Ġdirective": 3342,
      "Ġtro": 3343,
      "Ġparticip": 3344,
      "Ġoffen": 3345,
      "Ġrules": 3346,
      "bei": 3347,
      "ĠUhr": 3348,
      "Ġans": 3349,
      "ĠeuropÃ¤ische": 3350,
      "aps": 3351,
      "gricult": 3352,
      "ĠBerlin": 3353,
      "rÃ¤ge": 3354,
      "ĠTransp": 3355,
      "ĠEmp": 3356,
      "iere": 3357,
      "Ġcrisis": 3358,
      "fehl": 3359,
      "strument": 3360,
      "iken": 3361,
      "Ðµ": 3362,
      "Ġcontact": 3363,
      "oto": 3364,
      "Ġanal": 3365,
      "Ġregul": 3366,
      "CH": 3367,
      "Ġsett": 3368,
      "icle": 3369,
      "ierungen": 3370,
      "produ": 3371,
      "though": 3372,
      "ĠKre": 3373,
      "ksam": 3374,
      "ype": 3375,
      "ĠWorld": 3376,
      "ĠFrank": 3377,
      "ĠMeinung": 3378,
      "fect": 3379,
      "ĠMy": 3380,
      "Ġapart": 3381,
      "icial": 3382,
      "Ġmach": 3383,
      "go": 3384,
      "ĠNatur": 3385,
      "Ġfeel": 3386,
      "ĠGesundheit": 3387,
      "weg": 3388,
      "Ġsoftware": 3389,
      "Ġtowards": 3390,
      "Ġmoney": 3391,
      "Ġforward": 3392,
      "Ġonce": 3393,
      "Ġexpress": 3394,
      "Ġstark": 3395,
      "leistungen": 3396,
      "Ġinc": 3397,
      "Ġ198": 3398,
      "Ġprice": 3399,
      "ĠRep": 3400,
      "Ġeinzel": 3401,
      "Ġrange": 3402,
      "Ġklar": 3403,
      "Ġline": 3404,
      "ĠBerichterstatter": 3405,
      "thers": 3406,
      "Ġwelcome": 3407,
      "ĠKomm": 3408,
      "achst": 3409,
      "Ġextrem": 3410,
      "ully": 3411,
      "ony": 3412,
      "Ġonline": 3413,
      "Ġfast": 3414,
      "Ġetc": 3415,
      "ĠUnivers": 3416,
      "ĠGra": 3417,
      "etzung": 3418,
      "pekt": 3419,
      "Ġthings": 3420,
      "Ġabsol": 3421,
      "stÃ¼ck": 3422,
      "Ġlittle": 3423,
      "ĠMet": 3424,
      "prÃ¼": 3425,
      "ĠInvest": 3426,
      "Ġrecog": 3427,
      "Ġdest": 3428,
      "Ġbal": 3429,
      "zogen": 3430,
      "airs": 3431,
      "teilung": 3432,
      "voll": 3433,
      "ĠZusammenhang": 3434,
      "Ġinstitutions": 3435,
      "ĠGleich": 3436,
      "ologie": 3437,
      "Ð°": 3438,
      "ĠhÃ¤t": 3439,
      "Ġant": 3440,
      "ference": 3441,
      "Ġcommunic": 3442,
      "bet": 3443,
      "Ġmention": 3444,
      "Ġident": 3445,
      "ĠNov": 3446,
      "11": 3447,
      "uÃŁen": 3448,
      "Ġpost": 3449,
      "Ġzus": 3450,
      "ĠAbgeord": 3451,
      "ĠFisch": 3452,
      "itÃ¤ts": 3453,
      "Ġuntil": 3454,
      "ifft": 3455,
      "unds": 3456,
      "ĠPe": 3457,
      "haus": 3458,
      "weis": 3459,
      "Ġsitu": 3460,
      "istic": 3461,
      "Ġbeiden": 3462,
      "wand": 3463,
      "Ġmilit": 3464,
      "Ġunserem": 3465,
      "esten": 3466,
      "ĠGÃ¤ste": 3467,
      "lik": 3468,
      "ĠMadam": 3469,
      "Ġkommt": 3470,
      "Ġstre": 3471,
      "anges": 3472,
      "enzen": 3473,
      "ean": 3474,
      "outh": 3475,
      "Ġdays": 3476,
      "Ġwalk": 3477,
      "ĠSpan": 3478,
      "ĠPersonen": 3479,
      "asst": 3480,
      "ĠPartner": 3481,
      "Ġoptim": 3482,
      "ĠNational": 3483,
      "Ġcustomers": 3484,
      "gÃ¤n": 3485,
      "Ġfinanz": 3486,
      "DE": 3487,
      "ured": 3488,
      "ĠDo": 3489,
      "atten": 3490,
      "Ġstrong": 3491,
      "ĠArtikel": 3492,
      "Ġaid": 3493,
      "ĠTreaty": 3494,
      "Ġ2006": 3495,
      "ume": 3496,
      "ĠHilfe": 3497,
      "vent": 3498,
      "ĠCar": 3499,
      "Ġess": 3500,
      "ĠBank": 3501,
      "zimmer": 3502,
      "Ġentsprechen": 3503,
      "ison": 3504,
      "lÃ¤ge": 3505,
      "ĠEntschlieÃŁ": 3506,
      "eu": 3507,
      "mat": 3508,
      "Ġincrease": 3509,
      "lean": 3510,
      "OR": 3511,
      "tract": 3512,
      "idence": 3513,
      "ĠMo": 3514,
      "ĠApp": 3515,
      "Ġagree": 3516,
      "ieten": 3517,
      "iesen": 3518,
      "Ġbestehen": 3519,
      "Ġopportunity": 3520,
      "ommend": 3521,
      "ĠSchluss": 3522,
      "leicht": 3523,
      "AS": 3524,
      "Ã¤chst": 3525,
      "ww": 3526,
      "ĠJul": 3527,
      "fassung": 3528,
      "yr": 3529,
      "ĠVerantwort": 3530,
      "Ġweltweit": 3531,
      "na": 3532,
      "ĠFil": 3533,
      "Ġkeep": 3534,
      "Ġrather": 3535,
      "ĠUms": 3536,
      "Ġfunction": 3537,
      "idency": 3538,
      "Ġgrowth": 3539,
      "ennen": 3540,
      "rech": 3541,
      "Ġactivities": 3542,
      "Ġmind": 3543,
      "half": 3544,
      "Ġhard": 3545,
      "ocus": 3546,
      "ĠDieses": 3547,
      "liches": 3548,
      "ĠSep": 3549,
      "Ġquite": 3550,
      "crip": 3551,
      "stra": 3552,
      "edom": 3553,
      "Ġstellt": 3554,
      "Ã¤uf": 3555,
      "ĠMembers": 3556,
      "Ġve": 3557,
      "Ġcheck": 3558,
      "Ġbringen": 3559,
      "ĠLÃ¶sung": 3560,
      "ales": 3561,
      "ĠDemokrat": 3562,
      "mÃ¤ÃŁ": 3563,
      "Ġbzw": 3564,
      "Ġil": 3565,
      "weil": 3566,
      "ĠOrganis": 3567,
      "Ġja": 3568,
      "side": 3569,
      "baren": 3570,
      "han": 3571,
      "Ġseem": 3572,
      "ha": 3573,
      "lieÃŁen": 3574,
      "ĠWeit": 3575,
      "ĠWar": 3576,
      "Ġpositive": 3577,
      "Pro": 3578,
      "vorsch": 3579,
      "Ġprovided": 3580,
      "ĠPrÃ¤sidentin": 3581,
      "ĠLeben": 3582,
      "annten": 3583,
      "Ġtry": 3584,
      "ĠstÃ¤r": 3585,
      "ĠbegrÃ¼": 3586,
      "Ġelect": 3587,
      "Ġresources": 3588,
      "ĠKultur": 3589,
      "Ġbig": 3590,
      "Ġtas": 3591,
      "Ġsw": 3592,
      "ply": 3593,
      "Ġren": 3594,
      "aden": 3595,
      "ĠBas": 3596,
      "ĠfÃ¼hr": 3597,
      "Ġpartners": 3598,
      "Ġsug": 3599,
      "Ã¤ren": 3600,
      "ĠSc": 3601,
      "ller": 3602,
      "Ġweniger": 3603,
      "Ġdev": 3604,
      "Ġdaran": 3605,
      "Ġmean": 3606,
      "Ġtreat": 3607,
      "Ġindem": 3608,
      "Ġmight": 3609,
      "rolle": 3610,
      "ĠMinister": 3611,
      "Ġbehalf": 3612,
      "forderungen": 3613,
      "eits": 3614,
      "erecht": 3615,
      "Ġgilt": 3616,
      "ined": 3617,
      "Ġland": 3618,
      "letz": 3619,
      "Ġfully": 3620,
      "Ġport": 3621,
      "Ġclass": 3622,
      "ĠChar": 3623,
      "Ġetwa": 3624,
      "apan": 3625,
      "ideo": 3626,
      "reiche": 3627,
      "Ġqual": 3628,
      "ĠgewÃ¤hr": 3629,
      "Ã¼cksicht": 3630,
      "ĠCent": 3631,
      "ĠDeshalb": 3632,
      "the": 3633,
      "Ã¤mlich": 3634,
      "hnt": 3635,
      "mosph": 3636,
      "Ġjeden": 3637,
      "12": 3638,
      "Ġgesagt": 3639,
      "ona": 3640,
      "Ġfour": 3641,
      "Ġspiel": 3642,
      "frage": 3643,
      "Ġinclude": 3644,
      "abhÃ¤ng": 3645,
      "zeitig": 3646,
      "ĠnÃ¤mlich": 3647,
      "alitÃ¤t": 3648,
      "Ġlab": 3649,
      "wohl": 3650,
      "Ġsignific": 3651,
      "Â®": 3652,
      "iful": 3653,
      "Ġbitte": 3654,
      "Ġgute": 3655,
      "Ġyet": 3656,
      "legenheit": 3657,
      "Ġumf": 3658,
      "ager": 3659,
      "ĠState": 3660,
      "aler": 3661,
      "bon": 3662,
      "ĠAss": 3663,
      "Ã¤hlen": 3664,
      "Ġvalue": 3665,
      "plan": 3666,
      "ĠSozial": 3667,
      "onger": 3668,
      "stadt": 3669,
      "Ã¼hren": 3670,
      "Ġpark": 3671,
      "ĠpersÃ¶n": 3672,
      "itions": 3673,
      "einander": 3674,
      "ĠAfter": 3675,
      "Ġhaving": 3676,
      "fert": 3677,
      "ĠKosten": 3678,
      "ĠRates": 3679,
      "Ġpur": 3680,
      "Ġladies": 3681,
      "komm": 3682,
      "Ġtechnology": 3683,
      "ĠSeptember": 3684,
      "ception": 3685,
      "ĠErfahr": 3686,
      "Ġentscheiden": 3687,
      "prochen": 3688,
      "Ġsogar": 3689,
      "Ġmag": 3690,
      "ĠPer": 3691,
      "ĠOrt": 3692,
      "ij": 3693,
      "ĠEuropas": 3694,
      "ĠProdukte": 3695,
      "amental": 3696,
      "setzung": 3697,
      "Ġgenau": 3698,
      "Ġfield": 3699,
      "hunder": 3700,
      "ratic": 3701,
      "ĠPreis": 3702,
      "telle": 3703,
      "Ġadmin": 3704,
      "Ã¤chlich": 3705,
      "Ġproposals": 3706,
      "Ġbor": 3707,
      "ĠMillionen": 3708,
      "ops": 3709,
      "ĠNor": 3710,
      "Ġamendments": 3711,
      "recht": 3712,
      "wendet": 3713,
      "uh": 3714,
      "vÃ¶lk": 3715,
      "OM": 3716,
      "Ġalong": 3717,
      "ĠGeld": 3718,
      "Ġgerade": 3719,
      "Ġeduc": 3720,
      "Ġkurz": 3721,
      "self": 3722,
      "Ġu": 3723,
      "tragen": 3724,
      "Ġremain": 3725,
      "Ġerfolg": 3726,
      "iten": 3727,
      "illa": 3728,
      "Ġsolution": 3729,
      "Ġframework": 3730,
      "Ġtimes": 3731,
      "Ġtem": 3732,
      "Ġleft": 3733,
      "Ġnehmen": 3734,
      "roffen": 3735,
      "Ġ21": 3736,
      "ĠProjekt": 3737,
      "ĠAustr": 3738,
      "Ġbekannt": 3739,
      "Ġlog": 3740,
      "ingen": 3741,
      "Ġ)": 3742,
      "Ġkosten": 3743,
      "armon": 3744,
      "ĠText": 3745,
      "lei": 3746,
      "fully": 3747,
      "Ġsafety": 3748,
      "Ġminutes": 3749,
      "Ġarch": 3750,
      "ĠPriv": 3751,
      "ĠGar": 3752,
      "Ġrecommend": 3753,
      "Ġerwar": 3754,
      "ĠAnge": 3755,
      "ĠGrÃ¼n": 3756,
      "Ġcosts": 3757,
      "Ġabove": 3758,
      "verb": 3759,
      "Ġlight": 3760,
      "racy": 3761,
      "Ġspeak": 3762,
      "Ġeasy": 3763,
      "Ġeconomy": 3764,
      "ĠTod": 3765,
      "ĠPunkt": 3766,
      "stant": 3767,
      "Ġihn": 3768,
      "ativ": 3769,
      "Ġothers": 3770,
      "Ġadopted": 3771,
      "ĠJahres": 3772,
      "Ġtaking": 3773,
      "Ġessential": 3774,
      "alten": 3775,
      "oph": 3776,
      "Ġpolitische": 3777,
      "Ġunterschied": 3778,
      "ĠIsrael": 3779,
      "Ġebenfalls": 3780,
      "ledge": 3781,
      "lement": 3782,
      "Ġweek": 3783,
      "ĠTats": 3784,
      "ĠZugang": 3785,
      "most": 3786,
      "ĠTÃ¼r": 3787,
      "Ġstrength": 3788,
      "Ġmeisten": 3789,
      "anst": 3790,
      "ethod": 3791,
      "Ġihm": 3792,
      "Ġrecht": 3793,
      "Ġflo": 3794,
      "handlungen": 3795,
      "Ġpa": 3796,
      "ĠWeb": 3797,
      "Ġcreat": 3798,
      "Ġgemacht": 3799,
      "ĠFraktion": 3800,
      "ĠDank": 3801,
      "wahl": 3802,
      "inge": 3803,
      "Ġmakes": 3804,
      "Ġseinem": 3805,
      "ana": 3806,
      "ĠÃ¼": 3807,
      "unst": 3808,
      "za": 3809,
      "Ġviol": 3810,
      "Ġcontent": 3811,
      "ĠWirtschaft": 3812,
      "Ġled": 3813,
      "Ġcharac": 3814,
      "Ġentire": 3815,
      "Ġ40": 3816,
      "ĠBezug": 3817,
      "iberal": 3818,
      "Ġdessen": 3819,
      "Ġopinion": 3820,
      "Ġtool": 3821,
      "ĠSta": 3822,
      "ĠDieser": 3823,
      "Ġbesser": 3824,
      "iben": 3825,
      "Ġverbunden": 3826,
      "iers": 3827,
      "ports": 3828,
      "Ġbank": 3829,
      "Ġcalled": 3830,
      "Ġgehen": 3831,
      "Ġverst": 3832,
      "Ġdarf": 3833,
      "Ġflex": 3834,
      "ĠUnsere": 3835,
      "Ġbath": 3836,
      "ysteme": 3837,
      "tag": 3838,
      "Ġreturn": 3839,
      "ĠJanu": 3840,
      "bare": 3841,
      "Ġagricult": 3842,
      "Ġanges": 3843,
      "achten": 3844,
      "Ġconstru": 3845,
      "Ġnever": 3846,
      "Ġwebsite": 3847,
      "sh": 3848,
      "reen": 3849,
      "Ġlegislation": 3850,
      "ĠunterstÃ¼tzt": 3851,
      "ĠKap": 3852,
      "nete": 3853,
      "ĠOne": 3854,
      "Ġfocus": 3855,
      "Ġwesent": 3856,
      "ane": 3857,
      "ĠInstitution": 3858,
      "aurants": 3859,
      "ĠDeutschland": 3860,
      "ĠZust": 3861,
      "Ġapplication": 3862,
      "reicht": 3863,
      "ric": 3864,
      "ĠKomp": 3865,
      "Ġ2005": 3866,
      "Ġterm": 3867,
      "Ġak": 3868,
      "word": 3869,
      "ruktur": 3870,
      "igital": 3871,
      "ĠRechte": 3872,
      "iled": 3873,
      "gebung": 3874,
      "Ġresults": 3875,
      "ested": 3876,
      "Ð¸": 3877,
      "igr": 3878,
      "Ġwahr": 3879,
      "ĠPat": 3880,
      "Ġprovides": 3881,
      "Ġbuilding": 3882,
      "Ġsure": 3883,
      "Ã¼nf": 3884,
      "Ġpoints": 3885,
      "aged": 3886,
      "sweise": 3887,
      "atis": 3888,
      "Ġdarin": 3889,
      "ser": 3890,
      "ostel": 3891,
      "Ġdeliver": 3892,
      "Ġnah": 3893,
      "Ġprojects": 3894,
      "Ġfreedom": 3895,
      "aussch": 3896,
      "ĠVerkehr": 3897,
      "vernment": 3898,
      "Ġideal": 3899,
      "Ġdue": 3900,
      "Ġattention": 3901,
      "AL": 3902,
      "ĠSa": 3903,
      "Ġfair": 3904,
      "Ġbeginn": 3905,
      "erst": 3906,
      "Ġprogramm": 3907,
      "Ġpolicies": 3908,
      "arian": 3909,
      "ĠEntwicklungs": 3910,
      "benso": 3911,
      "ĠAntw": 3912,
      "Ġconcerned": 3913,
      "ĠBuch": 3914,
      "ĠGl": 3915,
      "ĠSel": 3916,
      "amb": 3917,
      "Ġheart": 3918,
      "Ġpot": 3919,
      "Ġstandard": 3920,
      "uz": 3921,
      "ĠIde": 3922,
      "Ã¼l": 3923,
      "ĠCo": 3924,
      "Ġcover": 3925,
      "ĠDen": 3926,
      "Ġresponsibility": 3927,
      "Ġglaube": 3928,
      "oting": 3929,
      "ĠÃ¶ffentlichen": 3930,
      "ĠFrei": 3931,
      "Ġbeautiful": 3932,
      "Ġpast": 3933,
      "Ġrisk": 3934,
      "ators": 3935,
      "Ġsimply": 3936,
      "ĠSub": 3937,
      "irc": 3938,
      "ufact": 3939,
      "ĠdÃ¼rfen": 3940,
      "iner": 3941,
      "Ġeinigen": 3942,
      "Ġderzeit": 3943,
      "Ġmass": 3944,
      "ĠWasser": 3945,
      "Ġrela": 3946,
      "Ġappropr": 3947,
      "âĤ": 3948,
      "reiben": 3949,
      "Ġnichts": 3950,
      "âĤ¬": 3951,
      "ĠQualitÃ¤t": 3952,
      "mitted": 3953,
      "now": 3954,
      "Ġperfect": 3955,
      "ĠMeer": 3956,
      "Ġquestions": 3957,
      "ished": 3958,
      "ĠJust": 3959,
      "ĠGemeinschaft": 3960,
      "Ġschaffen": 3961,
      "hing": 3962,
      "ĠWebsite": 3963,
      "Ġteam": 3964,
      "Ġyoung": 3965,
      "Ġgroups": 3966,
      "ĠSol": 3967,
      "Ġimportance": 3968,
      "ĠNicht": 3969,
      "ĠMÃ¤r": 3970,
      "ĠVerw": 3971,
      "berg": 3972,
      "Ġdom": 3973,
      "ĠHÃ¶": 3974,
      "Ã¨": 3975,
      "ĠFlug": 3976,
      "ients": 3977,
      "The": 3978,
      "EL": 3979,
      "Ġbit": 3980,
      "Ġmoder": 3981,
      "Ġabge": 3982,
      "wÃ¼r": 3983,
      "Ġsollen": 3984,
      "Ġeffective": 3985,
      "bour": 3986,
      "ĠNÃ¤": 3987,
      "Ġsociety": 3988,
      "schlieÃŁlich": 3989,
      "ĠRei": 3990,
      "ustain": 3991,
      "ding": 3992,
      "ampf": 3993,
      "afen": 3994,
      "ĠBeschÃ¤ft": 3995,
      "ceed": 3996,
      "ĠFrÃ¼h": 3997,
      "ringen": 3998,
      "Ġcontext": 3999,
      "zentr": 4000,
      "Ġihrem": 4001,
      "Ġhead": 4002,
      "ĠJahrhunder": 4003,
      "ĠPra": 4004,
      "Ġbrauchen": 4005,
      "ĠAngeb": 4006,
      "ada": 4007,
      "ĠFir": 4008,
      "Ġknown": 4009,
      "ĠProf": 4010,
      "Ġkeinen": 4011,
      "Ġnationalen": 4012,
      "gesehen": 4013,
      "ĠTV": 4014,
      "Ġgreater": 4015,
      "ĠRestaurant": 4016,
      "Ġholid": 4017,
      "Ġsea": 4018,
      "ĠAussprache": 4019,
      "arbeiten": 4020,
      "zustellen": 4021,
      "rimin": 4022,
      "ĠTre": 4023,
      "wÃ¤rt": 4024,
      "Ġenvironmental": 4025,
      "ĠVerbraucher": 4026,
      "Ġcontinu": 4027,
      "Ġ2004": 4028,
      "Ġhandelt": 4029,
      "Ġstrategy": 4030,
      "spolitik": 4031,
      "Ġmethod": 4032,
      "unkte": 4033,
      "Ġindustr": 4034,
      "iqu": 4035,
      "ĠKolleg": 4036,
      "verkehr": 4037,
      "ĠGroÃŁ": 4038,
      "rieg": 4039,
      "ĠCont": 4040,
      "Ã¤us": 4041,
      "istan": 4042,
      "ĠzusÃ¤tz": 4043,
      "utzt": 4044,
      "Ġtotal": 4045,
      "Ġversion": 4046,
      "Ġverbess": 4047,
      "EC": 4048,
      "onnen": 4049,
      "Ġnatural": 4050,
      "Ġstandards": 4051,
      "uelle": 4052,
      "emp": 4053,
      "pflicht": 4054,
      "Ġtable": 4055,
      "Ġroad": 4056,
      "leben": 4057,
      "itive": 4058,
      "Ġprinciple": 4059,
      "ÑĤ": 4060,
      "ĠChrist": 4061,
      "Ġweiterhin": 4062,
      "ĠII": 4063,
      "ĠSal": 4064,
      "Ġarr": 4065,
      "Ã¤ter": 4066,
      "unÃ¤chst": 4067,
      "ziehen": 4068,
      "Ġattra": 4069,
      "Ġverste": 4070,
      "Ġrad": 4071,
      "cen": 4072,
      "unehmen": 4073,
      "Ġtalk": 4074,
      "Ġmiss": 4075,
      "fs": 4076,
      "Ġwords": 4077,
      "Ġbetrifft": 4078,
      "eutet": 4079,
      "Ġsend": 4080,
      "ĠEbene": 4081,
      "ĠDr": 4082,
      "hib": 4083,
      "astru": 4084,
      "ĠSitz": 4085,
      "ĠFortsch": 4086,
      "Ġincreasing": 4087,
      "ette": 4088,
      "uell": 4089,
      "haltung": 4090,
      "Ġchallen": 4091,
      "Ġrequired": 4092,
      "Ġinstitution": 4093,
      "OS": 4094,
      "ning": 4095,
      "Ġlea": 4096,
      "ĠFar": 4097,
      "frastru": 4098,
      "acy": 4099,
      "Ġversch": 4100,
      "Ġcentral": 4101,
      "ĠDesign": 4102,
      "Ġviews": 4103,
      "unities": 4104,
      "Ġheraus": 4105,
      "isiert": 4106,
      "Ġhouse": 4107,
      "Ġsignificant": 4108,
      "bereit": 4109,
      "Ġmanufact": 4110,
      "Ġreserv": 4111,
      "zeichnet": 4112,
      "rach": 4113,
      "Ġwenig": 4114,
      "ided": 4115,
      "ĠerklÃ¤r": 4116,
      "ĠBem": 4117,
      "ulture": 4118,
      "Ġmoment": 4119,
      "Ġ23": 4120,
      "ĠZus": 4121,
      "staat": 4122,
      "wach": 4123,
      "Ġbedeutet": 4124,
      "ĠLeist": 4125,
      "onen": 4126,
      "useum": 4127,
      "Ġtraining": 4128,
      "Ġsei": 4129,
      "Ġdeutlich": 4130,
      "ĠCas": 4131,
      "Ġclearly": 4132,
      "ĠbenÃ¶t": 4133,
      "Ġmacht": 4134,
      "stoff": 4135,
      "Ġauthorities": 4136,
      "Ġdeshalb": 4137,
      "ex": 4138,
      "Ġmusic": 4139,
      "Ġmeeting": 4140,
      "Ġsolche": 4141,
      "Ġquick": 4142,
      "ĠAbstimmung": 4143,
      "Ġunver": 4144,
      "Ġinfl": 4145,
      "ban": 4146,
      "ims": 4147,
      "Ġbesten": 4148,
      "ĠApr": 4149,
      "Ġcla": 4150,
      "term": 4151,
      "Ġdon": 4152,
      "Ã¤nger": 4153,
      "An": 4154,
      "lÃ¤ss": 4155,
      "Ġuser": 4156,
      "spruch": 4157,
      "''": 4158,
      "Ġrelax": 4159,
      "Ġdemand": 4160,
      "Ġrecent": 4161,
      "icro": 4162,
      "Ġbreakfast": 4163,
      "Ġparl": 4164,
      "Ġkomple": 4165,
      "cal": 4166,
      "bung": 4167,
      "Ġpub": 4168,
      "Ġaufgrund": 4169,
      "anze": 4170,
      "atal": 4171,
      "vo": 4172,
      "Ġnetwork": 4173,
      "Ġinteress": 4174,
      "genda": 4175,
      "ĠWohn": 4176,
      "ĠMay": 4177,
      "Ġcapital": 4178,
      "schluss": 4179,
      "Ġextra": 4180,
      "ĠGesetz": 4181,
      "ĠBezieh": 4182,
      "ritten": 4183,
      "Ġlearn": 4184,
      "iting": 4185,
      "Ġlar": 4186,
      "Ġachieve": 4187,
      "ĠwÃ¼rden": 4188,
      "zÃ¼glich": 4189,
      "mals": 4190,
      "Ġfa": 4191,
      "fall": 4192,
      "Ġsour": 4193,
      "Ġaspect": 4194,
      "Ġnight": 4195,
      "Ġwichtige": 4196,
      "ĠWill": 4197,
      "aging": 4198,
      "Ã¤sent": 4199,
      "Ġshare": 4200,
      "ĠGesellschaft": 4201,
      "ĠKlima": 4202,
      "Ġfish": 4203,
      "ĠNovember": 4204,
      "ari": 4205,
      "ĠDok": 4206,
      "Ġtechnical": 4207,
      "erous": 4208,
      "ĠBesuch": 4209,
      "ĠSchul": 4210,
      "ĠAg": 4211,
      "Ġoft": 4212,
      "cent": 4213,
      "Ġmat": 4214,
      "yle": 4215,
      "Ġdistrib": 4216,
      "Ġclean": 4217,
      "ĠBro": 4218,
      "Ġaccording": 4219,
      "Ġvia": 4220,
      "Ġpages": 4221,
      "ĠKunst": 4222,
      "gesetzt": 4223,
      "ri": 4224,
      "Ġnature": 4225,
      "Ġappear": 4226,
      "Ġinternal": 4227,
      "ĠJapan": 4228,
      "hÃ¶rden": 4229,
      "Ġimm": 4230,
      "ĠMitarbeit": 4231,
      "Ġbeispiel": 4232,
      "ĠMenschenrechte": 4233,
      "Ġdirectly": 4234,
      "Ġlonger": 4235,
      "ones": 4236,
      "Ġmonths": 4237,
      "ology": 4238,
      "60": 4239,
      "gelegt": 4240,
      "jen": 4241,
      "Ġfindet": 4242,
      "Ġfacilities": 4243,
      "Ġside": 4244,
      "platz": 4245,
      "ĠUmsetzung": 4246,
      "Ġthough": 4247,
      "ĠWindows": 4248,
      "Ġprec": 4249,
      "Ġverein": 4250,
      "ĠVon": 4251,
      "ĠDemokratie": 4252,
      "Ġemployment": 4253,
      "ĠJu": 4254,
      "ĠnÃ¤chsten": 4255,
      "change": 4256,
      "Ġproposed": 4257,
      "Ġenough": 4258,
      "Ġobl": 4259,
      "wohn": 4260,
      "Ġsolutions": 4261,
      "ĠBevÃ¶lk": 4262,
      "Ġresponsible": 4263,
      "Ã¶rderung": 4264,
      "ender": 4265,
      "ption": 4266,
      "elves": 4267,
      "unch": 4268,
      "Ġfundamental": 4269,
      "Ġern": 4270,
      "ĠBetrie": 4271,
      "Ð½": 4272,
      "AP": 4273,
      "ĠAnsicht": 4274,
      "ĠgewÃ¤hrle": 4275,
      "ĠFirst": 4276,
      "Ġcultural": 4277,
      "Ġhistory": 4278,
      "Ġerne": 4279,
      "ĠRichtung": 4280,
      "Ġvorgesch": 4281,
      "AD": 4282,
      "Ġinterests": 4283,
      "ĠBrit": 4284,
      "gency": 4285,
      "Ġsubs": 4286,
      "Ġguests": 4287,
      "ker": 4288,
      "Ġtest": 4289,
      "Ġrequirements": 4290,
      "Ġnutzen": 4291,
      "Ġvol": 4292,
      "ĠHerren": 4293,
      "Ġcharacter": 4294,
      "kÃ¤mp": 4295,
      "ĠIndustrie": 4296,
      "Ġcurrently": 4297,
      "Ġlange": 4298,
      "Ġbetre": 4299,
      "orted": 4300,
      "ĠAuss": 4301,
      "Ġprevent": 4302,
      "Ġmaintain": 4303,
      "Ġvier": 4304,
      "ĠIra": 4305,
      "ĠNÃ¤he": 4306,
      "ĠApril": 4307,
      "ffe": 4308,
      "Ġcivil": 4309,
      "ĠSuch": 4310,
      "ĠHa": 4311,
      "frist": 4312,
      "lieÃŁlich": 4313,
      "Ġregions": 4314,
      "Ġevents": 4315,
      "umente": 4316,
      "ither": 4317,
      "ĠStat": 4318,
      "Ġassist": 4319,
      "ief": 4320,
      "ĠKar": 4321,
      "Ġterror": 4322,
      "Ġ22": 4323,
      "ables": 4324,
      "ĠBÃ¼": 4325,
      "Ġmount": 4326,
      "istischen": 4327,
      "rank": 4328,
      "Ġallerdings": 4329,
      "tes": 4330,
      "Ġthems": 4331,
      "IC": 4332,
      "ube": 4333,
      "Ġinvolved": 4334,
      "Ġthemselves": 4335,
      "gru": 4336,
      "Ġsustain": 4337,
      "drÃ¼ck": 4338,
      "verstÃ¤nd": 4339,
      "Ġsy": 4340,
      "Ġparties": 4341,
      "Ġweb": 4342,
      "Ġ000": 4343,
      "ellen": 4344,
      "ĠFehl": 4345,
      "ĠVerantwortung": 4346,
      "Ġapply": 4347,
      "ĠIr": 4348,
      "hem": 4349,
      "Ġsele": 4350,
      "Ġilleg": 4351,
      "Ġbil": 4352,
      "Ġanim": 4353,
      "stehen": 4354,
      "US": 4355,
      "Ġrecogn": 4356,
      "ĠInsel": 4357,
      "ĠWachst": 4358,
      "Ġzie": 4359,
      "Ġneeded": 4360,
      "wirkungen": 4361,
      "heim": 4362,
      "ĠSelbst": 4363,
      "ĠStruktur": 4364,
      "ĠBedingungen": 4365,
      "lauf": 4366,
      "irt": 4367,
      "Ġlive": 4368,
      "ĠAnwendung": 4369,
      "Ġcompetition": 4370,
      "esented": 4371,
      "llig": 4372,
      "Ġhappen": 4373,
      "teile": 4374,
      "ĠBenutz": 4375,
      "Ġforeign": 4376,
      "Ġhoffe": 4377,
      "aper": 4378,
      "Ġextremely": 4379,
      "ĠFern": 4380,
      "richtung": 4381,
      "Ġvoted": 4382,
      "Ġgegeben": 4383,
      "Ġforce": 4384,
      "ĠEntscheidung": 4385,
      "Ġgemeinsamen": 4386,
      "Ġimplementation": 4387,
      "cies": 4388,
      "ĠWert": 4389,
      "folgt": 4390,
      "Ġ197": 4391,
      "Ġrequest": 4392,
      "ĠPlease": 4393,
      "ta": 4394,
      "ĠFrom": 4395,
      "Ġnotwendig": 4396,
      "Ġstation": 4397,
      "Ġdemocracy": 4398,
      "Ġcentury": 4399,
      "mbH": 4400,
      "cke": 4401,
      "val": 4402,
      "bank": 4403,
      "Ġefforts": 4404,
      "ĠJun": 4405,
      "ĠGebiet": 4406,
      "ĠRaum": 4407,
      "Ġbeispielsweise": 4408,
      "Ġguarantee": 4409,
      "Ġupon": 4410,
      "ĠZiele": 4411,
      "Ġfight": 4412,
      "Ġcamp": 4413,
      "ĠAG": 4414,
      "ĠBau": 4415,
      "Ġlanguage": 4416,
      "Ġ2003": 4417,
      "Ġjeweil": 4418,
      "Ġitem": 4419,
      "ele": 4420,
      "Ã¼rz": 4421,
      "ĠTages": 4422,
      "ired": 4423,
      "Ġkont": 4424,
      "ĠKons": 4425,
      "Ġago": 4426,
      "urf": 4427,
      "dam": 4428,
      "ĠDruck": 4429,
      "ĠGrundlage": 4430,
      "ommod": 4431,
      "Ġdank": 4432,
      "ynam": 4433,
      "ĠgehÃ¶rt": 4434,
      "uk": 4435,
      "ĠSoc": 4436,
      "peten": 4437,
      "ĠVorschlÃ¤ge": 4438,
      "Ġbedeut": 4439,
      "has": 4440,
      "ĠInteresse": 4441,
      "Ã¼ssel": 4442,
      "Ġwohl": 4443,
      "ĠTrans": 4444,
      "ĠPf": 4445,
      "linien": 4446,
      "Ġchanges": 4447,
      "obile": 4448,
      "Ġvielleicht": 4449,
      "Ġkleinen": 4450,
      "Ġcaus": 4451,
      "bel": 4452,
      "ienen": 4453,
      "ĠNord": 4454,
      "ĠErfolg": 4455,
      "ublik": 4456,
      "Ġplease": 4457,
      "ĠParis": 4458,
      "Ġsozialen": 4459,
      "Ġprep": 4460,
      "inzip": 4461,
      "ĠDam": 4462,
      "ĠOff": 4463,
      "ĠGmbH": 4464,
      "ĠEinz": 4465,
      "Ġverwendet": 4466,
      "Ġdisk": 4467,
      "rench": 4468,
      "lied": 4469,
      "Ġlow": 4470,
      "Ġcharge": 4471,
      "Ġexpect": 4472,
      "Ġenthalten": 4473,
      "Ġwind": 4474,
      "Ġerziel": 4475,
      "Ġcirc": 4476,
      "ĠMusik": 4477,
      "Ġdemokrat": 4478,
      "Ġcontain": 4479,
      "Ġsepar": 4480,
      "Ġdeveloped": 4481,
      "ĠIhrem": 4482,
      "ĠParte": 4483,
      "atory": 4484,
      "ragen": 4485,
      "ĠermÃ¶glich": 4486,
      "key": 4487,
      "igur": 4488,
      "ĠWieder": 4489,
      "Ġsprechen": 4490,
      "grif": 4491,
      "ĠBil": 4492,
      "arf": 4493,
      "Ġbevor": 4494,
      "Ġcorre": 4495,
      "vert": 4496,
      "Ġfarm": 4497,
      "ĠStre": 4498,
      "ĠAuÃŁen": 4499,
      "Ġzust": 4500,
      "ĠTele": 4501,
      "igungs": 4502,
      "Ġregulation": 4503,
      "Ġneu": 4504,
      "ĠEur": 4505,
      "ĠKrit": 4506,
      "rup": 4507,
      "ĠVerfahren": 4508,
      "amous": 4509,
      "Ġprotect": 4510,
      "ano": 4511,
      "ĠTro": 4512,
      "jekte": 4513,
      "istration": 4514,
      "ĠRussia": 4515,
      "ĠWort": 4516,
      "sichtlich": 4517,
      "-,": 4518,
      "schn": 4519,
      "Ġsoon": 4520,
      "chs": 4521,
      "onstr": 4522,
      "ĠDaher": 4523,
      "Ġlot": 4524,
      "deut": 4525,
      "ĠEinsatz": 4526,
      "Ġcomfortable": 4527,
      "wÃ¼rd": 4528,
      "ĠReihe": 4529,
      "ĠAug": 4530,
      "ĠGeschichte": 4531,
      "Ġerreicht": 4532,
      "ĠÃ¶": 4533,
      "ĠWel": 4534,
      "handlung": 4535,
      "ama": 4536,
      "Ġmess": 4537,
      "Ġcases": 4538,
      "ĠBy": 4539,
      "Ġpool": 4540,
      "Ġmaxim": 4541,
      "tended": 4542,
      "ĠKÃ¶n": 4543,
      "ips": 4544,
      "ĠAuÃŁer": 4545,
      "Ġnegotiations": 4546,
      "andid": 4547,
      "crib": 4548,
      "best": 4549,
      "techn": 4550,
      "nehm": 4551,
      "play": 4552,
      "gliche": 4553,
      "ĠCour": 4554,
      "Ġwerde": 4555,
      "bl": 4556,
      "ĠberÃ¼cksicht": 4557,
      "Ġcomes": 4558,
      "Ġsituated": 4559,
      "immungen": 4560,
      "ĠMore": 4561,
      "Ġhalten": 4562,
      "ĠDate": 4563,
      "Ġtarge": 4564,
      "ĠHeraus": 4565,
      "Ġnam": 4566,
      "ĠMÃ¶glichkeiten": 4567,
      "ĠFrieden": 4568,
      "ense": 4569,
      "ĠBook": 4570,
      "Ġeither": 4571,
      "ĠProt": 4572,
      "teilt": 4573,
      "Ġmarkets": 4574,
      "Ġprevious": 4575,
      "ĠBre": 4576,
      "ipped": 4577,
      "ĠerfÃ¼": 4578,
      "ĠMot": 4579,
      "dle": 4580,
      "orge": 4581,
      "arbeitung": 4582,
      "Ġrestaurant": 4583,
      "Ã¤tzen": 4584,
      "Ġeinges": 4585,
      "geln": 4586,
      "hes": 4587,
      "teilen": 4588,
      "merksam": 4589,
      "Ġregional": 4590,
      "ĠNetz": 4591,
      "hend": 4592,
      "itionen": 4593,
      "prise": 4594,
      "Ġdeveloping": 4595,
      "ĠFrance": 4596,
      "lling": 4597,
      "ĠBlick": 4598,
      "estern": 4599,
      "ĠDebatte": 4600,
      "Ġeverything": 4601,
      "ĠDamen": 4602,
      "ĠÃ¼bern": 4603,
      "ĠErweit": 4604,
      "Ġindic": 4605,
      "gern": 4606,
      "TM": 4607,
      "ĠSouth": 4608,
      "ump": 4609,
      "inner": 4610,
      "ĠÃĸff": 4611,
      "Ġcreated": 4612,
      "bildung": 4613,
      "Ġausgest": 4614,
      "Ġminim": 4615,
      "Ġ60": 4616,
      "abel": 4617,
      "Ġfinal": 4618,
      "Ġsurround": 4619,
      "stall": 4620,
      "TO": 4621,
      "ĠAktiv": 4622,
      "auen": 4623,
      "zeigt": 4624,
      "ĠCor": 4625,
      "ĠArbeitspl": 4626,
      "date": 4627,
      "mut": 4628,
      "istet": 4629,
      "ĠErklÃ¤r": 4630,
      "Ġarbeiten": 4631,
      "Ġunique": 4632,
      "ĠfÃ¼nf": 4633,
      "Ġimprove": 4634,
      "rieben": 4635,
      "Ġstates": 4636,
      "ĠSchwe": 4637,
      "Ġamb": 4638,
      "ĠWissen": 4639,
      "ĠPresidency": 4640,
      "ĠhÃ¶ch": 4641,
      "attet": 4642,
      "erseits": 4643,
      "ĠHinblick": 4644,
      "ĠkÃ¶nnten": 4645,
      "Ġverschiedene": 4646,
      "ĠMod": 4647,
      "Ġlater": 4648,
      "ĠHoch": 4649,
      "Ġprices": 4650,
      "Ġmer": 4651,
      "Ġvorgeschlagen": 4652,
      "ging": 4653,
      "Ġpict": 4654,
      "ĠMont": 4655,
      "mark": 4656,
      "ĠâĤ¬": 4657,
      "Ġeducation": 4658,
      "ĠKle": 4659,
      "trie": 4660,
      "Ġaccommod": 4661,
      "ĠIntegr": 4662,
      "Ġschwier": 4663,
      "anten": 4664,
      "iable": 4665,
      "13": 4666,
      "ĠSteuer": 4667,
      "ĠFrench": 4668,
      "unik": 4669,
      "urt": 4670,
      "RO": 4671,
      "Ġimmed": 4672,
      "ka": 4673,
      "Ġtrue": 4674,
      "usst": 4675,
      "ichen": 4676,
      "Ġkonkre": 4677,
      "gegen": 4678,
      "Ġadditional": 4679,
      "ĠâĢĺ": 4680,
      "ĠSport": 4681,
      "Ġaltern": 4682,
      "Ġalmost": 4683,
      "Ġstor": 4684,
      "haps": 4685,
      "vin": 4686,
      "Ġbleiben": 4687,
      "Ġincluded": 4688,
      "Ġgemeinsame": 4689,
      "Ġque": 4690,
      "haft": 4691,
      "onn": 4692,
      "Ġmonitor": 4693,
      "Ġdemocratic": 4694,
      "Ġliving": 4695,
      "ulate": 4696,
      "ĠverfÃ¼gt": 4697,
      "Ġthus": 4698,
      "Ġcut": 4699,
      "eless": 4700,
      "ipment": 4701,
      "ĠRoom": 4702,
      "Ġanalys": 4703,
      "Ġactually": 4704,
      "mm": 4705,
      "ĠermÃ¶glicht": 4706,
      "igte": 4707,
      "ĠMinuten": 4708,
      "Ġcontract": 4709,
      "bahn": 4710,
      "Ġfort": 4711,
      "ĠInstitutionen": 4712,
      "ĠPlan": 4713,
      "sprÃ¤sident": 4714,
      "Ġclimate": 4715,
      "ĠDiskuss": 4716,
      "ĠAuswirkungen": 4717,
      "Ġidea": 4718,
      "ibr": 4719,
      "ÑĢ": 4720,
      "Ġfile": 4721,
      "pendent": 4722,
      "Ġseen": 4723,
      "Ġschrift": 4724,
      "iÃŁt": 4725,
      "Ġtravel": 4726,
      "Ġdocument": 4727,
      "ĠPlatz": 4728,
      "ingt": 4729,
      "kra": 4730,
      "Ġwide": 4731,
      "ĠKir": 4732,
      "rechts": 4733,
      "IP": 4734,
      "int": 4735,
      "ĠAff": 4736,
      "ĠKraft": 4737,
      "fil": 4738,
      "ental": 4739,
      "ĠLis": 4740,
      "ĠEC": 4741,
      "Ġprogram": 4742,
      "wegen": 4743,
      "ielle": 4744,
      "ikt": 4745,
      "lle": 4746,
      "ĠÃĦnderungsantrag": 4747,
      "Ġencour": 4748,
      "ĠUnser": 4749,
      "ĠDoch": 4750,
      "Ġjoin": 4751,
      "lack": 4752,
      "Ġlack": 4753,
      "ĠRechn": 4754,
      "ĠApart": 4755,
      "ĠProzess": 4756,
      "Ġakzept": 4757,
      "Ñģ": 4758,
      "Ġreceive": 4759,
      "Ġhatten": 4760,
      "Ġhold": 4761,
      "Ġtats": 4762,
      "ios": 4763,
      "jenigen": 4764,
      "ĠvollstÃ¤nd": 4765,
      "laden": 4766,
      "Ġknowledge": 4767,
      "Ġzeigt": 4768,
      "ĠDienstleistungen": 4769,
      "ĠForschung": 4770,
      "ilar": 4771,
      "Ġtype": 4772,
      "ires": 4773,
      "ommer": 4774,
      "ĠStrategie": 4775,
      "ĠTatsache": 4776,
      "mail": 4777,
      "barkeit": 4778,
      "Ġdialog": 4779,
      "Ġappropriate": 4780,
      "ĠDis": 4781,
      "ester": 4782,
      "Ġerforderlich": 4783,
      "rachten": 4784,
      "ĠSicherheits": 4785,
      "Ġfunds": 4786,
      "ĠfÃ¼hrt": 4787,
      "hinder": 4788,
      "Ġvill": 4789,
      "Ġwirtschaftlichen": 4790,
      "Ġschein": 4791,
      "Ġbisher": 4792,
      "Ġofficial": 4793,
      "Ġheld": 4794,
      "frei": 4795,
      "ĠBeg": 4796,
      "Ġenl": 4797,
      "ĠFrÃ¼hstÃ¼ck": 4798,
      "Ġeuro": 4799,
      "ĠAusdruck": 4800,
      "ogra": 4801,
      "Ġ27": 4802,
      "ĠAnt": 4803,
      "Ġprocedure": 4804,
      "15": 4805,
      "ĠLandes": 4806,
      "Ġallgemein": 4807,
      "ĠNie": 4808,
      "zer": 4809,
      "ĠRad": 4810,
      "setzen": 4811,
      "Ġhapp": 4812,
      "Ġoutside": 4813,
      "iellen": 4814,
      "ĠRegionen": 4815,
      "Ġgesamten": 4816,
      "Ġassoc": 4817,
      "adurch": 4818,
      "ĠErgebnis": 4819,
      "folgen": 4820,
      "ĠWebs": 4821,
      "ĠAbgeordneten": 4822,
      "ĠIran": 4823,
      "ĠArch": 4824,
      "auber": 4825,
      "iance": 4826,
      "Ġthing": 4827,
      "ĠerwÃ¤": 4828,
      "ctors": 4829,
      "feld": 4830,
      "anced": 4831,
      "Ġpublish": 4832,
      "Ġangeb": 4833,
      "ĠVertre": 4834,
      "Ġdesigned": 4835,
      "Ġschool": 4836,
      "Ġworkers": 4837,
      "Ð¾Ð": 4838,
      "ĠPortug": 4839,
      "ound": 4840,
      "Ġebenso": 4841,
      "Ġeinzelnen": 4842,
      "ĠFamilien": 4843,
      "ams": 4844,
      "Ġpropert": 4845,
      "Ġdarum": 4846,
      "Ġsuggest": 4847,
      "des": 4848,
      "atisf": 4849,
      "ork": 4850,
      "Ġfunktion": 4851,
      "ĠCom": 4852,
      "Ġrate": 4853,
      "ĠErst": 4854,
      "ĠSchritt": 4855,
      "ternal": 4856,
      "fragen": 4857,
      "stead": 4858,
      "ĠKolleginnen": 4859,
      "Ġmajority": 4860,
      "Ġfeatures": 4861,
      "ood": 4862,
      "oper": 4863,
      "ko": 4864,
      "Ġprofessional": 4865,
      "ĠLond": 4866,
      "ieÃŁen": 4867,
      "Ã¶glichen": 4868,
      "Ġfamous": 4869,
      "ĠDu": 4870,
      "Ġdanken": 4871,
      "orf": 4872,
      "Ã¤hlt": 4873,
      "iews": 4874,
      "ĠspÃ¤ter": 4875,
      "ĠFunktion": 4876,
      "Ġrelev": 4877,
      "Ġentwickelt": 4878,
      "ĠHers": 4879,
      "Ġhon": 4880,
      "ĠAmerican": 4881,
      "imme": 4882,
      "fel": 4883,
      "clud": 4884,
      "isieren": 4885,
      "Ġthroughout": 4886,
      "ĠDec": 4887,
      "cep": 4888,
      "jÃ¤hr": 4889,
      "Ġearly": 4890,
      "Ġcommunication": 4891,
      "ĠBinnen": 4892,
      "ĠMitglieder": 4893,
      "ĠFund": 4894,
      "Ġcop": 4895,
      "ĠGeneral": 4896,
      "Ġdraw": 4897,
      "Ġfive": 4898,
      "otos": 4899,
      "Ġdenke": 4900,
      "Ġanswer": 4901,
      "Ġlooking": 4902,
      "Ã¤nden": 4903,
      "va": 4904,
      "Ġangenommen": 4905,
      "Ġexclus": 4906,
      "igration": 4907,
      "lÃ¤ndern": 4908,
      "mitteln": 4909,
      "Ġcustomer": 4910,
      "Ġimpact": 4911,
      "ĠWest": 4912,
      "oid": 4913,
      "indest": 4914,
      "verfahren": 4915,
      "ĠAuÃŁerdem": 4916,
      "Ġbetra": 4917,
      "Ã¤sst": 4918,
      "iens": 4919,
      "Ġbehand": 4920,
      "Ġtransl": 4921,
      "Ġemphas": 4922,
      "Ġtakes": 4923,
      "Ġspace": 4924,
      "ĠÃĦnderungsantrÃ¤ge": 4925,
      "Ġdownload": 4926,
      "Ġhours": 4927,
      "ĠDenn": 4928,
      "ĠAcc": 4929,
      "ĠVersion": 4930,
      "ĠZur": 4931,
      "Ġworks": 4932,
      "Ġdoing": 4933,
      "enken": 4934,
      "ĠAntwort": 4935,
      "fÃ¤higkeit": 4936,
      "Ġpotential": 4937,
      "Ġacross": 4938,
      "Ġstrengthen": 4939,
      "cer": 4940,
      "Ġwider": 4941,
      "ĠVerhandlungen": 4942,
      "Ġnormal": 4943,
      "ĠBereichen": 4944,
      "Ġenable": 4945,
      "arbeitet": 4946,
      "Ġinternationale": 4947,
      "cure": 4948,
      "Ġjedem": 4949,
      "Ã¼lt": 4950,
      "Ġlinks": 4951,
      "Ġcertainly": 4952,
      "ĠRis": 4953,
      "Ã¤ndert": 4954,
      "ĠGemeinschafts": 4955,
      "ĠMil": 4956,
      "Ġunivers": 4957,
      "Ġever": 4958,
      "pression": 4959,
      "Ġdate": 4960,
      "ĠNorth": 4961,
      "Ġparts": 4962,
      "Ġconsequ": 4963,
      "Ġproper": 4964,
      "kn": 4965,
      "Ġ*": 4966,
      "ĠweiÃŁ": 4967,
      "kÃ¤mpfung": 4968,
      "ĠPosition": 4969,
      "ĠhÃ¤tte": 4970,
      "ĠWÃ¤hr": 4971,
      "Ġsolid": 4972,
      "Ġgemeinsam": 4973,
      "Ġkonnte": 4974,
      "Ġbefinden": 4975,
      "Ġaud": 4976,
      "ĠZum": 4977,
      "ological": 4978,
      "Ġ2002": 4979,
      "ĠAugust": 4980,
      "ET": 4981,
      "liegen": 4982,
      "kr": 4983,
      "ĠStaats": 4984,
      "ĠÃ¤uÃŁer": 4985,
      "ĠDialog": 4986,
      "Ġcolleag": 4987,
      "Ġ80": 4988,
      "zif": 4989,
      "ĠVereinigten": 4990,
      "uren": 4991,
      "Ġguest": 4992,
      "Ġusers": 4993,
      "Ġvorh": 4994,
      "onom": 4995,
      "Ġsetzen": 4996,
      "ĠLondon": 4997,
      "prÃ¤": 4998,
      "Ġtraditional": 4999,
      "rad": 5000,
      "Ġinvestment": 5001,
      "Ġgleichzeitig": 5002,
      "ĠHandels": 5003,
      "bru": 5004,
      "Ġtook": 5005,
      "Ġneues": 5006,
      "Ġmechan": 5007,
      "Ã¤llen": 5008,
      "Ã¶sen": 5009,
      "Ġweiteren": 5010,
      "Ġrecord": 5011,
      "ĠBeziehungen": 5012,
      "Ġca": 5013,
      "erei": 5014,
      "hab": 5015,
      "Ġdivers": 5016,
      "ĠLuft": 5017,
      "ĠPa": 5018,
      "ĠFÃ¼hr": 5019,
      "ĠerhÃ¶": 5020,
      "chsel": 5021,
      "ĠPak": 5022,
      "Ġumfassen": 5023,
      "Ġeth": 5024,
      "ĠZentrum": 5025,
      "Ġexisting": 5026,
      "ĠBevÃ¶lkerung": 5027,
      "Ġconcerns": 5028,
      "Ġamount": 5029,
      "Ġresol": 5030,
      "Ġcomplex": 5031,
      "stre": 5032,
      "ĠNat": 5033,
      "aly": 5034,
      "Ġeigent": 5035,
      "ias": 5036,
      "Ġhinter": 5037,
      "ille": 5038,
      "Ã¼gen": 5039,
      "ĠWerk": 5040,
      "ĠheiÃŁt": 5041,
      "Ġprogrammes": 5042,
      "Ġerhe": 5043,
      "ĠTurkey": 5044,
      "Ġoriginal": 5045,
      "hung": 5046,
      "Ġconnection": 5047,
      "teid": 5048,
      "uted": 5049,
      "AM": 5050,
      "Ġcross": 5051,
      "ĠTerror": 5052,
      "ĠSÃ¼d": 5053,
      "ĠKos": 5054,
      "oking": 5055,
      "kei": 5056,
      "ĠVertra": 5057,
      "Ġzuf": 5058,
      "halte": 5059,
      "ini": 5060,
      "ĠAbkommen": 5061,
      "Ġlat": 5062,
      "ava": 5063,
      "Ġ2001": 5064,
      "ĠLeit": 5065,
      "ĠLet": 5066,
      "griff": 5067,
      "ball": 5068,
      "alter": 5069,
      "ĠOnline": 5070,
      "Ġneben": 5071,
      "Ġrelig": 5072,
      "ĠProgramme": 5073,
      "Ã¤ss": 5074,
      "aring": 5075,
      "Ġmentioned": 5076,
      "wie": 5077,
      "ara": 5078,
      "ĠInteressen": 5079,
      "Ġconcerning": 5080,
      "ĠProz": 5081,
      "Ġmodel": 5082,
      "sehen": 5083,
      "lÃ¤nder": 5084,
      "range": 5085,
      "ĠHol": 5086,
      "fortun": 5087,
      "Ġalthough": 5088,
      "ĠFlugh": 5089,
      "Ġtele": 5090,
      "ĠAmerica": 5091,
      "orre": 5092,
      "Ġjede": 5093,
      "Ġparliament": 5094,
      "AC": 5095,
      "ĠAufgabe": 5096,
      "Ġwriting": 5097,
      "ĠGovernment": 5098,
      "Ġhelfen": 5099,
      "Ġreasons": 5100,
      "Ġlux": 5101,
      "lang": 5102,
      "Ġaktiv": 5103,
      "Ġabsolute": 5104,
      "ox": 5105,
      "ĠvÃ¶": 5106,
      "ole": 5107,
      "ĠCourt": 5108,
      "ande": 5109,
      "ĠBeitrag": 5110,
      "affung": 5111,
      "ĠHandel": 5112,
      "ĠInform": 5113,
      "Ġdemonstr": 5114,
      "Ġarg": 5115,
      "Ġcard": 5116,
      "richtungen": 5117,
      "esh": 5118,
      "Ġdecisions": 5119,
      "ĠFÃ¶rderung": 5120,
      "ĠPC": 5121,
      "Ġleading": 5122,
      "Ġaware": 5123,
      "Ġcompletely": 5124,
      "face": 5125,
      "ĠHigh": 5126,
      "hlen": 5127,
      "Ġbuilt": 5128,
      "Ġnothing": 5129,
      "ĠTÃ¼rkei": 5130,
      "ipl": 5131,
      "Ġrelated": 5132,
      "ĠgegenwÃ¤rt": 5133,
      "ĠKontrolle": 5134,
      "ĠMor": 5135,
      "ĠEnglish": 5136,
      "ĠCD": 5137,
      "Ġjoint": 5138,
      "temp": 5139,
      "ĠVerpflicht": 5140,
      "Ġextens": 5141,
      "ĠSy": 5142,
      "Ġgame": 5143,
      "Ġgelten": 5144,
      "Ġbeit": 5145,
      "esserung": 5146,
      "Ġgestellt": 5147,
      "ĠThemen": 5148,
      "Ġfriendly": 5149,
      "ayer": 5150,
      "Ġhalf": 5151,
      "Ġcommunity": 5152,
      "ĠSchlussel": 5153,
      "zÃ¶s": 5154,
      "Ġempf": 5155,
      "ĠMag": 5156,
      "ĠFuÃŁ": 5157,
      "ĠListe": 5158,
      "Ġrund": 5159,
      "Ġintens": 5160,
      "Ġwichtigen": 5161,
      "Ġconflic": 5162,
      "Ġkleine": 5163,
      "arity": 5164,
      "iddle": 5165,
      "Ã¼sse": 5166,
      "formen": 5167,
      "Ġmeinen": 5168,
      "ĠStabil": 5169,
      "ba": 5170,
      "Ġbasic": 5171,
      "ĠEinzel": 5172,
      "ED": 5173,
      "Ġunseres": 5174,
      "ĠSee": 5175,
      "amera": 5176,
      "Ġenlarge": 5177,
      "Ġassess": 5178,
      "Ġcommittee": 5179,
      "Ġprakt": 5180,
      "ĠWettbewerbs": 5181,
      "una": 5182,
      "ĠFebru": 5183,
      "Ġculture": 5184,
      "ush": 5185,
      "Ġpractice": 5186,
      "Ġfront": 5187,
      "ĠVerbindung": 5188,
      "Ġholiday": 5189,
      "ĠErweiterung": 5190,
      "orten": 5191,
      "Ġpopulation": 5192,
      "uffer": 5193,
      "quis": 5194,
      "Ġincludes": 5195,
      "fÃ¼hren": 5196,
      "ĠBarcel": 5197,
      "Ġmilitary": 5198,
      "odell": 5199,
      "Ġinternet": 5200,
      "Ġdigital": 5201,
      "Ġschwer": 5202,
      "Ġagreements": 5203,
      "ĠKampf": 5204,
      "more": 5205,
      "Re": 5206,
      "grat": 5207,
      "Ġverd": 5208,
      "ID": 5209,
      "gl": 5210,
      "fluss": 5211,
      "Ġspr": 5212,
      "itable": 5213,
      "Ġconsult": 5214,
      "SE": 5215,
      "Ġallows": 5216,
      "Ġgab": 5217,
      "gangenen": 5218,
      "Ġbecom": 5219,
      "Ġliegen": 5220,
      "inden": 5221,
      "termin": 5222,
      "spe": 5223,
      "Ġmedia": 5224,
      "ĠReform": 5225,
      "Ġoblig": 5226,
      "lies": 5227,
      "lant": 5228,
      "Ġgestimmt": 5229,
      "Ġ$": 5230,
      "Ġspezie": 5231,
      "nissen": 5232,
      "Ġerinn": 5233,
      "Ġcommer": 5234,
      "bedingungen": 5235,
      "Ġjedes": 5236,
      "ĠAusschusses": 5237,
      "Ġadvant": 5238,
      "Ġsearch": 5239,
      "Ġ1999": 5240,
      "ĠSup": 5241,
      "Ġobjectives": 5242,
      "Ġ-,": 5243,
      "zunehmen": 5244,
      ".,": 5245,
      "osen": 5246,
      "Ġbleibt": 5247,
      "Ġerr": 5248,
      "ĠSince": 5249,
      "Ġbody": 5250,
      "Ġconclus": 5251,
      "ills": 5252,
      "Ġchoice": 5253,
      "istrat": 5254,
      "zeugen": 5255,
      "licken": 5256,
      "Ġbekommen": 5257,
      "ĠRel": 5258,
      "Ġwa": 5259,
      "ĠKonferenz": 5260,
      "ĠChe": 5261,
      "ĠVis": 5262,
      "itness": 5263,
      "iterran": 5264,
      "Mail": 5265,
      "Ġwegen": 5266,
      "Ġreceived": 5267,
      "Ġvalues": 5268,
      "Ġjobs": 5269,
      "ĠVerordnung": 5270,
      "ĠwÃ¼n": 5271,
      "Ġsimple": 5272,
      "Ã¤lle": 5273,
      "iated": 5274,
      "ĠEntschlieÃŁung": 5275,
      "Ġemer": 5276,
      "Ġtransfer": 5277,
      "ĠIS": 5278,
      "rachen": 5279,
      "annte": 5280,
      "alien": 5281,
      "ovo": 5282,
      "vement": 5283,
      "Ġnahe": 5284,
      "struments": 5285,
      "Ġsatisf": 5286,
      "ying": 5287,
      "Ġfail": 5288,
      "ĠPass": 5289,
      "Ġwarm": 5290,
      "ĠLux": 5291,
      "Ġestablished": 5292,
      "ason": 5293,
      "len": 5294,
      "ĠThank": 5295,
      "ĠStrand": 5296,
      "Ġpoor": 5297,
      "ĠNutzung": 5298,
      "Ġprim": 5299,
      "Ġangem": 5300,
      "Ġbess": 5301,
      "Ġcomputer": 5302,
      "ĠVolk": 5303,
      "Ġapplications": 5304,
      "Ġplann": 5305,
      "ĠLisbon": 5306,
      "Ġequipment": 5307,
      "Ġpackage": 5308,
      "jahr": 5309,
      "ĠNow": 5310,
      "ĠHome": 5311,
      "ico": 5312,
      "mbol": 5313,
      "ery": 5314,
      "geschlossen": 5315,
      "ĠKop": 5316,
      "Ã¶rdern": 5317,
      "Ġrichtig": 5318,
      "Ġregarding": 5319,
      "ĠBehÃ¶rden": 5320,
      "Ġcapac": 5321,
      "Ġperformance": 5322,
      "Ã³n": 5323,
      "Ġmove": 5324,
      "Ġsag": 5325,
      "ourn": 5326,
      "Ġcenter": 5327,
      "such": 5328,
      "pite": 5329,
      "ikanischen": 5330,
      "Ġharmon": 5331,
      "Ġlok": 5332,
      "Ġwunder": 5333,
      "ĠPrior": 5334,
      "ĠNotwend": 5335,
      "Ġerlaub": 5336,
      "abon": 5337,
      "ĠZe": 5338,
      "ĠServ": 5339,
      "ĠAugen": 5340,
      "rab": 5341,
      "Ã¶st": 5342,
      "sitz": 5343,
      "ĠVolks": 5344,
      "Ġgerne": 5345,
      "oo": 5346,
      "ennung": 5347,
      "Ġjud": 5348,
      "dom": 5349,
      "Ġfiles": 5350,
      "uck": 5351,
      "ĠLiss": 5352,
      "Ġimage": 5353,
      "Ġdurchge": 5354,
      "Ġwichtigsten": 5355,
      "Ġattack": 5356,
      "ĠDamit": 5357,
      "vious": 5358,
      "Ġiniti": 5359,
      "Ġverantwort": 5360,
      "ĠMitarbeiter": 5361,
      "Ġpleas": 5362,
      "pected": 5363,
      "Ġpurch": 5364,
      "Ġagricultural": 5365,
      "pass": 5366,
      "eden": 5367,
      "ĠAufent": 5368,
      "Ġsun": 5369,
      "Ġ+": 5370,
      "essour": 5371,
      "uclear": 5372,
      "ĠunabhÃ¤ng": 5373,
      "Ġbroad": 5374,
      "Ġobjective": 5375,
      "ĠCons": 5376,
      "ĠUrlaub": 5377,
      "erve": 5378,
      "Ġquickly": 5379,
      "Ġspend": 5380,
      "ĠOber": 5381,
      "icles": 5382,
      "ĠForder": 5383,
      "Ġcredit": 5384,
      "inne": 5385,
      "Ġmehrere": 5386,
      "ĠKrise": 5387,
      "Ġhinsichtlich": 5388,
      "ĠHere": 5389,
      "Ġcru": 5390,
      "Ġreports": 5391,
      "Ġstop": 5392,
      "Ġface": 5393,
      "Ġwonder": 5394,
      "Ġkeyword": 5395,
      "Ġherr": 5396,
      "ĠReise": 5397,
      "Ġbelow": 5398,
      "ĠFrankreich": 5399,
      "flÃ¤": 5400,
      "Ġsound": 5401,
      "osed": 5402,
      "ĠIT": 5403,
      "Ġgoods": 5404,
      "ĠImm": 5405,
      "gesamt": 5406,
      "ĠVerbesserung": 5407,
      "ĠAffairs": 5408,
      "este": 5409,
      "imension": 5410,
      "ĠImp": 5411,
      "ĠSant": 5412,
      "Ġfran": 5413,
      "Ã¶hn": 5414,
      "Ġganzen": 5415,
      "Ġganze": 5416,
      "Ver": 5417,
      "Ġeinger": 5418,
      "Ġindustrial": 5419,
      "stellungen": 5420,
      "ros": 5421,
      "Ġnachhalt": 5422,
      "Ġwobei": 5423,
      "Ġparty": 5424,
      "wide": 5425,
      "seit": 5426,
      "undes": 5427,
      "ĠBitte": 5428,
      "ĠLissabon": 5429,
      "ĠGruppe": 5430,
      "ĠUkra": 5431,
      "ĠAuswahl": 5432,
      "nern": 5433,
      "Ġsouth": 5434,
      "ĠWochen": 5435,
      "ften": 5436,
      "Ġself": 5437,
      "ĠenthÃ¤lt": 5438,
      "Fra": 5439,
      "ĠermÃ¶glichen": 5440,
      "ĠBad": 5441,
      "Ġleaders": 5442,
      "chter": 5443,
      "Ġtrotz": 5444,
      "Ġexperien": 5445,
      "Ġoption": 5446,
      "Ġbenefit": 5447,
      "Ġnote": 5448,
      "brigen": 5449,
      "ernen": 5450,
      "statt": 5451,
      "ĠVeranst": 5452,
      "Ġtreatment": 5453,
      "Ġhuge": 5454,
      "Ġsense": 5455,
      "Ġpopular": 5456,
      "emb": 5457,
      "Ġcontains": 5458,
      "ĠschÃ¶n": 5459,
      "teller": 5460,
      "Ġachieved": 5461,
      "Ġcode": 5462,
      "ĠAmend": 5463,
      "gef": 5464,
      "ĠCity": 5465,
      "ps": 5466,
      "erc": 5467,
      "aving": 5468,
      "gelt": 5469,
      "Ġseems": 5470,
      "ĠGree": 5471,
      "40": 5472,
      "18": 5473,
      "ĠLink": 5474,
      "itect": 5475,
      "mann": 5476,
      "Ġinitiative": 5477,
      "Ġindeed": 5478,
      "ĠEast": 5479,
      "schlieÃŁend": 5480,
      "Ġpassen": 5481,
      "entwick": 5482,
      "Ġgarant": 5483,
      "lla": 5484,
      "iveness": 5485,
      "ĠWachstum": 5486,
      "sterreich": 5487,
      "ĠSim": 5488,
      "Ġbeein": 5489,
      "opping": 5490,
      "lam": 5491,
      "Ġrail": 5492,
      "Ġzeigen": 5493,
      "wander": 5494,
      "ĠBinnenmarkt": 5495,
      "Ġleben": 5496,
      "Ġrecently": 5497,
      "17": 5498,
      "ĠDokument": 5499,
      "lassen": 5500,
      "ĠSchaffung": 5501,
      "otion": 5502,
      "Ã¤um": 5503,
      "ĠAnfang": 5504,
      "ĠPan": 5505,
      "Ġgrund": 5506,
      "Ġill": 5507,
      "istische": 5508,
      "mÃ¶glichkeit": 5509,
      "Ġlos": 5510,
      "ĠGelegenheit": 5511,
      "Ġspac": 5512,
      "mor": 5513,
      "erweise": 5514,
      "ĠMacht": 5515,
      "put": 5516,
      "Ġcorrect": 5517,
      "Ġengine": 5518,
      "Ġcarry": 5519,
      "ĠChin": 5520,
      "ĠStandard": 5521,
      "iment": 5522,
      "Ġvict": 5523,
      "Ġdouble": 5524,
      "ĠBarcelona": 5525,
      "ĠBef": 5526,
      "Ġmittel": 5527,
      "Ġcongrat": 5528,
      "Ġverg": 5529,
      "Ġveh": 5530,
      "Ġbeginning": 5531,
      "ĠFinally": 5532,
      "ania": 5533,
      "Ġruh": 5534,
      "ĠClub": 5535,
      "ĠGebÃ¤": 5536,
      "Ġdialogue": 5537,
      "kennen": 5538,
      "Ġhighly": 5539,
      "ienste": 5540,
      "ĠUp": 5541,
      "ĠFach": 5542,
      "ĠGlobal": 5543,
      "Ġ28": 5544,
      "Ġnice": 5545,
      "itel": 5546,
      "oppel": 5547,
      "Ġlevels": 5548,
      "Ġ!": 5549,
      "fonds": 5550,
      "fon": 5551,
      "Ġseries": 5552,
      "VD": 5553,
      "ĠJune": 5554,
      "haupt": 5555,
      "Ġoil": 5556,
      "ĠGewalt": 5557,
      "Ġspielen": 5558,
      "Ġfloor": 5559,
      "En": 5560,
      "ĠfrÃ¼": 5561,
      "ĠLes": 5562,
      "ĠInnov": 5563,
      "pid": 5564,
      "Ġefficient": 5565,
      "Ġpresented": 5566,
      "ĠSocial": 5567,
      "bre": 5568,
      "ĠVerwendung": 5569,
      "wertungen": 5570,
      "ĠSome": 5571,
      "onse": 5572,
      "Ġheut": 5573,
      "Ġeveryone": 5574,
      "ÃŁt": 5575,
      "ĠDarÃ¼ber": 5576,
      "Ġscient": 5577,
      "Ġequipped": 5578,
      "stances": 5579,
      "Ġsuccessful": 5580,
      "ĠErgebnisse": 5581,
      "ĠvÃ¶llig": 5582,
      "Ġgovernments": 5583,
      "ĠCentral": 5584,
      "Ġclick": 5585,
      "Ġintegration": 5586,
      "Ġgarden": 5587,
      "icien": 5588,
      "ĠPersonal": 5589,
      "Ã¤tigkeit": 5590,
      "ostels": 5591,
      "vorschriften": 5592,
      "ĠManagement": 5593,
      "Ġactive": 5594,
      "ĠAngebot": 5595,
      "Ġverbessern": 5596,
      "Ġsuper": 5597,
      "Ġcomprom": 5598,
      "ĠTeam": 5599,
      "ĠAmster": 5600,
      "....": 5601,
      "ĠVoraus": 5602,
      "ĠNotwendigkeit": 5603,
      "lace": 5604,
      "Ġred": 5605,
      "Ġut": 5606,
      "Ġeinzig": 5607,
      "ĠMich": 5608,
      "Ġexchange": 5609,
      "fortunately": 5610,
      "fordert": 5611,
      "ĠlÃ¤sst": 5612,
      "ĠKern": 5613,
      "ĠZweit": 5614,
      "Ġkulture": 5615,
      "anzen": 5616,
      "Ġincreased": 5617,
      "Ġgrundlegen": 5618,
      "ley": 5619,
      "ĠLiefer": 5620,
      "ĠMaterial": 5621,
      "Ġ500": 5622,
      "Ġfurn": 5623,
      "utt": 5624,
      "Ġcarried": 5625,
      "Ġpain": 5626,
      "ĠAnzahl": 5627,
      "ĠHo": 5628,
      "Ġwhose": 5629,
      "organis": 5630,
      "PE": 5631,
      "Ġfrei": 5632,
      "ĠLeg": 5633,
      "Ġtw": 5634,
      "Ġstage": 5635,
      "mehr": 5636,
      "Ġconsumers": 5637,
      "ĠTage": 5638,
      "ering": 5639,
      "ĠSecond": 5640,
      "abor": 5641,
      "Ã¶rper": 5642,
      "iko": 5643,
      "Ġprinciples": 5644,
      "ature": 5645,
      "Ã¼tzen": 5646,
      "aufen": 5647,
      "Ġverwenden": 5648,
      "ĠAkt": 5649,
      "Ġage": 5650,
      "schw": 5651,
      "isted": 5652,
      "lier": 5653,
      "Ġblock": 5654,
      "Ġsex": 5655,
      "RE": 5656,
      "Ġhigher": 5657,
      "ĠPost": 5658,
      "Ġagreed": 5659,
      "atell": 5660,
      "Ġguten": 5661,
      "ĠgefÃ¤hr": 5662,
      "unt": 5663,
      "Ġsoziale": 5664,
      "Ġdre": 5665,
      "ued": 5666,
      "izien": 5667,
      "OL": 5668,
      "ĠZeitpunkt": 5669,
      "Ġeigene": 5670,
      "ĠWoche": 5671,
      "just": 5672,
      "ĠgroÃŁer": 5673,
      "ĠverfÃ¼gen": 5674,
      "action": 5675,
      "imming": 5676,
      "Ġoffice": 5677,
      "hoben": 5678,
      "bie": 5679,
      "Ġsent": 5680,
      "Ġdang": 5681,
      "pose": 5682,
      "ĠBud": 5683,
      "Ġstra": 5684,
      "buch": 5685,
      "IL": 5686,
      "Ġbathroom": 5687,
      "Ġreviews": 5688,
      "will": 5689,
      "ape": 5690,
      "Ġprofit": 5691,
      "Ġamendment": 5692,
      "Ġcoll": 5693,
      "Ġrat": 5694,
      "Ġdirection": 5695,
      "Ġasked": 5696,
      "wise": 5697,
      "ĠBra": 5698,
      "anner": 5699,
      "Ġpan": 5700,
      "ĠhÃ¤uf": 5701,
      "Ġexpl": 5702,
      "atic": 5703,
      "Ġmal": 5704,
      "...\"": 5705,
      "icherung": 5706,
      "ĠFurther": 5707,
      "Ġsubsid": 5708,
      "loyment": 5709,
      "ĠMiss": 5710,
      "Ġcommercial": 5711,
      "ĠFerien": 5712,
      "aschinen": 5713,
      "Ġchoose": 5714,
      "Ġsupply": 5715,
      "Ġexc": 5716,
      "ĠRussland": 5717,
      "ĠSolid": 5718,
      "Ġtraff": 5719,
      "Ġseek": 5720,
      "ĠverfÃ¼g": 5721,
      "Ġcommitment": 5722,
      "ja": 5723,
      "griffen": 5724,
      "Ġsimilar": 5725,
      "Ġsix": 5726,
      "Ġmeinem": 5727,
      "spiel": 5728,
      "ĠfÃ¶rdern": 5729,
      "trÃ¤ge": 5730,
      "ĠBusiness": 5731,
      "ĠBerg": 5732,
      "ĠIntegration": 5733,
      "Ġ196": 5734,
      "ĠschÃ¶": 5735,
      "umb": 5736,
      "klus": 5737,
      "ĠLÃ¶sungen": 5738,
      "Ġobtain": 5739,
      "ĠMac": 5740,
      "ĠProduktion": 5741,
      "xis": 5742,
      "scht": 5743,
      "atast": 5744,
      "Ġdiskut": 5745,
      "Ġanzu": 5746,
      "rid": 5747,
      "ĠHam": 5748,
      "apt": 5749,
      "Ġperhaps": 5750,
      "ĠJugend": 5751,
      "Ġtell": 5752,
      "mitt": 5753,
      "ĠWein": 5754,
      "ĠkÃ¼nft": 5755,
      "agn": 5756,
      "Ġshows": 5757,
      "Ġgesamte": 5758,
      "ĠzunÃ¤chst": 5759,
      "verstÃ¤ndlich": 5760,
      "ĠMÃ¤n": 5761,
      "iglich": 5762,
      "ĠDan": 5763,
      "ĠTherefore": 5764,
      "IM": 5765,
      "minister": 5766,
      "Ġinfluen": 5767,
      "Ġrates": 5768,
      "Ġnews": 5769,
      "ĠTat": 5770,
      "Ġmatters": 5771,
      "ĠgehÃ¶ren": 5772,
      "Ġobs": 5773,
      "Ġavoid": 5774,
      "Ġaspects": 5775,
      "ahren": 5776,
      "ĠÃĦnderungen": 5777,
      "Ġstress": 5778,
      "Ġadded": 5779,
      "inger": 5780,
      "iles": 5781,
      "Ġshown": 5782,
      "Ġatmosph": 5783,
      "gn": 5784,
      "ĠMaÃŁ": 5785,
      "Ã¤ngt": 5786,
      "Ġgleichen": 5787,
      "usion": 5788,
      "Ġbi": 5789,
      "ufficient": 5790,
      "Ġnuclear": 5791,
      "Ġrein": 5792,
      "ĠBeschÃ¤ftigung": 5793,
      "ĠDevelop": 5794,
      "Ġinnovative": 5795,
      "osp": 5796,
      "Ġformer": 5797,
      "Ġhotels": 5798,
      "Ġpromote": 5799,
      "Ġthanks": 5800,
      "standen": 5801,
      "Ã¤st": 5802,
      "ĠJuni": 5803,
      "Ġvorhanden": 5804,
      "Ġdynam": 5805,
      "ĠKrieg": 5806,
      "fÃ¤lt": 5807,
      "ĠEigen": 5808,
      "Ġcame": 5809,
      "Ġconsidered": 5810,
      "ĠtatsÃ¤chlich": 5811,
      "ĠDez": 5812,
      "pflich": 5813,
      "ĠPers": 5814,
      "cks": 5815,
      "eff": 5816,
      "greifen": 5817,
      "Ġspeed": 5818,
      "lass": 5819,
      "ĠNet": 5820,
      "ĠLog": 5821,
      "ĠRot": 5822,
      "Ġgelegen": 5823,
      "Ã¤ndig": 5824,
      "ĠInde": 5825,
      "irit": 5826,
      "ĠArticle": 5827,
      "Ġsorgen": 5828,
      "ĠMai": 5829,
      "ĠGet": 5830,
      "Ġeffects": 5831,
      "ĠOf": 5832,
      "ĠWahr": 5833,
      "ĠHinter": 5834,
      "ĠverÃ¶ffent": 5835,
      "Ġlik": 5836,
      "akter": 5837,
      "Sch": 5838,
      "Ġlatest": 5839,
      "Ġpossibility": 5840,
      "essourcen": 5841,
      "ĠMicro": 5842,
      "lÃ¶s": 5843,
      "artige": 5844,
      "Ġopportunities": 5845,
      "ĠGolf": 5846,
      "Ġeindeut": 5847,
      "Ã¶ffnet": 5848,
      "li": 5849,
      "ĠverstÃ¤r": 5850,
      "ĠgefÃ¼hrt": 5851,
      "ĠRegierungen": 5852,
      "Ġschriftlich": 5853,
      "ĠInitiative": 5854,
      "ĠErfahrung": 5855,
      "Ġ90": 5856,
      "ously": 5857,
      "ĠZw": 5858,
      "fahrt": 5859,
      "ĠBeschl": 5860,
      "Ġmaterials": 5861,
      "ĠHerzen": 5862,
      "ĠBalk": 5863,
      "ilen": 5864,
      "ĠMehrheit": 5865,
      "ĠDebian": 5866,
      "ĠWÃ¤hrend": 5867,
      "ierenden": 5868,
      "Ġ=": 5869,
      "ored": 5870,
      "ends": 5871,
      "owers": 5872,
      "Ġbehind": 5873,
      "ĠCol": 5874,
      "cript": 5875,
      "Ġdepend": 5876,
      "astic": 5877,
      "ausch": 5878,
      "ĠNieder": 5879,
      "Ġcondition": 5880,
      "Ġerk": 5881,
      "ĠEinfÃ¼hrung": 5882,
      "zub": 5883,
      "ĠStellung": 5884,
      "ĠSum": 5885,
      "Ġsofort": 5886,
      "Ġentwickeln": 5887,
      "Ġernst": 5888,
      "ausschuss": 5889,
      "ĠDon": 5890,
      "ĠWell": 5891,
      "ĠArg": 5892,
      "icy": 5893,
      "ĠProgram": 5894,
      "Ġsetting": 5895,
      "ki": 5896,
      "Ġdraft": 5897,
      "Ġphys": 5898,
      "okoll": 5899,
      "ĠLat": 5900,
      "Ġresponse": 5901,
      "Ġproviding": 5902,
      "Ġaf": 5903,
      "Ġreached": 5904,
      "ĠSpain": 5905,
      "itting": 5906,
      "ĠOrganisation": 5907,
      "Ġcreation": 5908,
      "Ã¼hm": 5909,
      "arent": 5910,
      "ĠDabei": 5911,
      "Ġreview": 5912,
      "ĠgrÃ¶ÃŁten": 5913,
      "Ġeasily": 5914,
      "16": 5915,
      "ĠKÃ¶nig": 5916,
      "where": 5917,
      "ĠRepublic": 5918,
      "ĠÃ¤uÃŁerst": 5919,
      "Ġaccommodation": 5920,
      "Ġ26": 5921,
      "Ġverstehen": 5922,
      "alu": 5923,
      "Ġexternal": 5924,
      "Ġleicht": 5925,
      "altungs": 5926,
      "Ġatmosphere": 5927,
      "ĠRu": 5928,
      "unsch": 5929,
      "gene": 5930,
      "Ġsummer": 5931,
      "Ġprepared": 5932,
      "ĠIN": 5933,
      "Ġrelevant": 5934,
      "Ġ70": 5935,
      "Ġdeath": 5936,
      "zeugt": 5937,
      "iction": 5938,
      "otes": 5939,
      "ĠTransport": 5940,
      "Ġsize": 5941,
      "Ġreduce": 5942,
      "ĠAud": 5943,
      "ĠLauf": 5944,
      "ĠWeiter": 5945,
      "Ġhoff": 5946,
      "Ġexhib": 5947,
      "kraft": 5948,
      "arily": 5949,
      "Ġcriter": 5950,
      "ĠÃĸffent": 5951,
      "Ġsomit": 5952,
      "ĠSil": 5953,
      "Ġschle": 5954,
      "Ã¤cht": 5955,
      "Ġdeta": 5956,
      "ĠAmsterdam": 5957,
      "idel": 5958,
      "Ġsustainable": 5959,
      "ĠgewÃ¤hrleisten": 5960,
      "Ġlediglich": 5961,
      "Ġpressure": 5962,
      "ĠÃł": 5963,
      "Ġdecided": 5964,
      "Ġhohen": 5965,
      "ĠAgr": 5966,
      "uffet": 5967,
      "ĠItaly": 5968,
      "Ġgeschlossen": 5969,
      "rechend": 5970,
      "rang": 5971,
      "ĠInstall": 5972,
      "ĠConvention": 5973,
      "Ġelekt": 5974,
      "itzen": 5975,
      "14": 5976,
      "ney": 5977,
      "Ġprepar": 5978,
      "Ġverpflich": 5979,
      "ĠKonfl": 5980,
      "ĠRatsprÃ¤sident": 5981,
      "istics": 5982,
      "ĠUmgebung": 5983,
      "Ġcondu": 5984,
      "Ġcapacity": 5985,
      "quare": 5986,
      "uel": 5987,
      "ĠLoc": 5988,
      "ĠHÃ¶he": 5989,
      "oz": 5990,
      "Ġgebracht": 5991,
      "ĠIns": 5992,
      "ĠKontakt": 5993,
      "ĠRev": 5994,
      "uern": 5995,
      "Ġterra": 5996,
      "entlich": 5997,
      "Ġcoming": 5998,
      "Ġbeteil": 5999,
      "son": 6000,
      "Ġprob": 6001,
      "Ġ300": 6002,
      "Ġvideo": 6003,
      "ĠOct": 6004,
      "Ġerfolgreich": 6005,
      "Ġsubmitted": 6006,
      "ĠEnts": 6007,
      "Ġactions": 6008,
      "Ġstyle": 6009,
      "ibilities": 6010,
      "ierter": 6011,
      "ĠFamilie": 6012,
      "Ġ''": 6013,
      "ounts": 6014,
      "ĠAktion": 6015,
      "Ġgives": 6016,
      "Ġwirtschaftliche": 6017,
      "estens": 6018,
      "Ġplaces": 6019,
      "stellt": 6020,
      "Ġanderer": 6021,
      "ĠInformations": 6022,
      "ĠVereinbar": 6023,
      "Ġneigh": 6024,
      "Ġdetails": 6025,
      "Ġten": 6026,
      "Ġconcept": 6027,
      "creen": 6028,
      "ĠSprache": 6029,
      "Ġregular": 6030,
      "Ġgross": 6031,
      "Ġsites": 6032,
      "Ġremains": 6033,
      "ĠKommunik": 6034,
      "Ġdep": 6035,
      "Ġarchitect": 6036,
      "Ġproperty": 6037,
      "volle": 6038,
      "Ã©s": 6039,
      "Ġvern": 6040,
      "ulgar": 6041,
      "ĠGemeins": 6042,
      "iately": 6043,
      "ĠCal": 6044,
      "Ġemploye": 6045,
      "ĠStandpunkt": 6046,
      "rig": 6047,
      "kommens": 6048,
      "Be": 6049,
      "Ġenlargement": 6050,
      "maÃŁnahmen": 6051,
      "Ġbestimmte": 6052,
      "sy": 6053,
      "Ġsuffer": 6054,
      "ĠSicht": 6055,
      "Ġcause": 6056,
      "Ġclosed": 6057,
      "ĠWettbewerb": 6058,
      "ĠKomprom": 6059,
      "Te": 6060,
      "tent": 6061,
      "industrie": 6062,
      "ĠBritish": 6063,
      "Ġpriority": 6064,
      "emin": 6065,
      "Ġwww": 6066,
      "rehens": 6067,
      "ĠErachten": 6068,
      "ĠNeben": 6069,
      "Ġerschein": 6070,
      "Ġune": 6071,
      "roat": 6072,
      "Ġausgestattet": 6073,
      "ĠKommissarin": 6074,
      "ĠDecember": 6075,
      "ĠErachtens": 6076,
      "Ġmeines": 6077,
      "ĠBekÃ¤mpfung": 6078,
      "ĠEing": 6079,
      "Ġzweite": 6080,
      "resp": 6081,
      "99": 6082,
      "iture": 6083,
      "Ġdisplay": 6084,
      "ĠAfrica": 6085,
      "ĠParty": 6086,
      "ĠDinge": 6087,
      "Ġleave": 6088,
      "ĠVertrags": 6089,
      "ĠKosovo": 6090,
      "Ġbalance": 6091,
      "zeuge": 6092,
      "hil": 6093,
      "ĠYork": 6094,
      "bert": 6095,
      "Ġannoun": 6096,
      "Ġfal": 6097,
      "Ġisland": 6098,
      "Ġtrain": 6099,
      "ĠFreiheit": 6100,
      "rief": 6101,
      "Ġbestimmten": 6102,
      "ĠMarch": 6103,
      "ĠAdr": 6104,
      "eting": 6105,
      "ĠAlso": 6106,
      "Ġbillion": 6107,
      "lav": 6108,
      "ĠFolgen": 6109,
      "Ġzahlreiche": 6110,
      "Ġamer": 6111,
      "ĠDom": 6112,
      "ĠUkraine": 6113,
      "Ġdescrib": 6114,
      "Ġregister": 6115,
      "Ġobwohl": 6116,
      "ĠWTO": 6117,
      "adem": 6118,
      "ĠStad": 6119,
      "Ġfunding": 6120,
      "Ġpartner": 6121,
      "25": 6122,
      "ĠAspe": 6123,
      "Ġlimited": 6124,
      "Ġconsumer": 6125,
      "mented": 6126,
      "Ã¼ndet": 6127,
      "ĠFehler": 6128,
      "Ġvorgesehen": 6129,
      "Ġassistance": 6130,
      "ĠMuseum": 6131,
      "ĠOpen": 6132,
      "ĠVerkehrs": 6133,
      "ĠItalien": 6134,
      "Ġmovement": 6135,
      "Ġdecl": 6136,
      "ĠBooking": 6137,
      "setzungen": 6138,
      "Ġforms": 6139,
      "ĠKe": 6140,
      "rec": 6141,
      "Ġdiscover": 6142,
      "ĠOkt": 6143,
      "Ġneuer": 6144,
      "ĠFortschritte": 6145,
      "Ġdring": 6146,
      "ĠAktivitÃ¤ten": 6147,
      "inal": 6148,
      "ĠerhÃ¤lt": 6149,
      "atastrop": 6150,
      "Ġx": 6151,
      "Ġelse": 6152,
      "sprÃ¼n": 6153,
      "ĠSpa": 6154,
      "ugs": 6155,
      "legenheiten": 6156,
      "Ġtragen": 6157,
      "ĠEnter": 6158,
      "Ġhighl": 6159,
      "iterranean": 6160,
      "ĠWohl": 6161,
      "ĠFed": 6162,
      "Ġscheint": 6163,
      "ĠÃľberein": 6164,
      "ĠJed": 6165,
      "urr": 6166,
      "Ġprot": 6167,
      "selves": 6168,
      "Ġsport": 6169,
      "Ġtransparen": 6170,
      "ieg": 6171,
      "uert": 6172,
      "Ġwoll": 6173,
      "Ġentde": 6174,
      "Ġsupported": 6175,
      "schnitt": 6176,
      "terne": 6177,
      "ĠÃ¤hn": 6178,
      "ategories": 6179,
      "ĠOpt": 6180,
      "Ġground": 6181,
      "'.": 6182,
      "itzer": 6183,
      "die": 6184,
      "Ġgreen": 6185,
      "Ġbrought": 6186,
      "mÃ¤ÃŁig": 6187,
      "ghan": 6188,
      "Ġsagte": 6189,
      "system": 6190,
      "ĠInstrument": 6191,
      "mission": 6192,
      "bus": 6193,
      "wertung": 6194,
      "iciency": 6195,
      "Ġrule": 6196,
      "PL": 6197,
      "cle": 6198,
      "ĠWestern": 6199,
      "Ġregulations": 6200,
      "Ġnorth": 6201,
      "Ġindependent": 6202,
      "Ġvorlie": 6203,
      "Ġerweit": 6204,
      "ĠauÃŁerdem": 6205,
      "ĠDezember": 6206,
      "Ġallein": 6207,
      "Ġgewor": 6208,
      "Ġfoot": 6209,
      "Ġversuchen": 6210,
      "Ġvirt": 6211,
      "Ġhor": 6212,
      "stitute": 6213,
      "Ġadministrat": 6214,
      "ournal": 6215,
      "ĠMedien": 6216,
      "gesellschaft": 6217,
      "here": 6218,
      "hindern": 6219,
      "Ġeffe": 6220,
      "Ġlimit": 6221,
      "Ġko": 6222,
      "Ġquiet": 6223,
      "ĠbestÃ¤t": 6224,
      "ĠBestimmungen": 6225,
      "reibung": 6226,
      "ehen": 6227,
      "Ġsolchen": 6228,
      "Ġcreating": 6229,
      "etimes": 6230,
      "geber": 6231,
      "stein": 6232,
      "ĠStelle": 6233,
      "Ġdadurch": 6234,
      "Ġunterst": 6235,
      "Ġpleased": 6236,
      "ĠJahrhundert": 6237,
      "Fraktion": 6238,
      "Ġfig": 6239,
      "Ġord": 6240,
      "Ġconstruction": 6241,
      "NG": 6242,
      "Ġerster": 6243,
      "ĠAf": 6244,
      "ĠGruppen": 6245,
      "ĠPreise": 6246,
      "Ġrestaurants": 6247,
      "Ġpurpose": 6248,
      "ĠHar": 6249,
      "ĠgemÃ¤ÃŁ": 6250,
      "Ġvariety": 6251,
      "ĠGefahr": 6252,
      "ĠItalian": 6253,
      "Ġzweiten": 6254,
      "ader": 6255,
      "Ġlic": 6256,
      "ĠJo": 6257,
      "Off": 6258,
      "Ġrepe": 6259,
      "ena": 6260,
      "Ġ1998": 6261,
      "ĠDi": 6262,
      "ĠOper": 6263,
      "ĠStunden": 6264,
      "uis": 6265,
      "Pl": 6266,
      "Ġapartment": 6267,
      "Ġmobile": 6268,
      "ĠJanuary": 6269,
      "Ã¼tzt": 6270,
      "Ġdiscussion": 6271,
      "Ġairport": 6272,
      "ĠfranzÃ¶s": 6273,
      "Ġfriends": 6274,
      "Ġeinzige": 6275,
      "Ġhy": 6276,
      "page": 6277,
      "anischen": 6278,
      "ĠNur": 6279,
      "ĠBenutzer": 6280,
      "ilos": 6281,
      "Ġhohe": 6282,
      "Ġfix": 6283,
      "Ġinsgesamt": 6284,
      "Ġexpla": 6285,
      "Ġdeep": 6286,
      "Ġmessage": 6287,
      "merksamkeit": 6288,
      "Ġbecame": 6289,
      "Ġinstead": 6290,
      "Ġaufgenommen": 6291,
      "Ġproduced": 6292,
      "Ġerheb": 6293,
      "Ġlargest": 6294,
      "ategorien": 6295,
      "Ġexec": 6296,
      "Ġwid": 6297,
      "Ġsus": 6298,
      "ĠPrivat": 6299,
      "ĠKing": 6300,
      "mÃ¶glichkeiten": 6301,
      "unternehmen": 6302,
      "endes": 6303,
      "Ġrenov": 6304,
      "isters": 6305,
      "ĠAufmerksamkeit": 6306,
      "ĠStaat": 6307,
      "ritts": 6308,
      "ĠLast": 6309,
      "Ġthous": 6310,
      "Ġvergangenen": 6311,
      "ĠPunkte": 6312,
      "ĠErklÃ¤rung": 6313,
      "ĠBildung": 6314,
      "igungen": 6315,
      "stag": 6316,
      "Ġrelationship": 6317,
      "besch": 6318,
      "ĠOctober": 6319,
      "ĠUnterk": 6320,
      "ĠSl": 6321,
      "Ġchem": 6322,
      "Ġalten": 6323,
      "Ġbein": 6324,
      "ero": 6325,
      "Ġstudy": 6326,
      "Ġconference": 6327,
      "Ġstability": 6328,
      "ĠBasis": 6329,
      "ĠschlieÃŁlich": 6330,
      "Ġways": 6331,
      "aft": 6332,
      "ĠEntscheidungen": 6333,
      "iker": 6334,
      "Ġobvious": 6335,
      "Ġhost": 6336,
      "Ġgee": 6337,
      "kont": 6338,
      "ĠDet": 6339,
      "Ġinteresting": 6340,
      "arenz": 6341,
      "Ġregards": 6342,
      "Ġaccord": 6343,
      "ĠGed": 6344,
      "Ġ29": 6345,
      "Ã¼rf": 6346,
      "Ġeffort": 6347,
      "bewertungen": 6348,
      "cement": 6349,
      "ĠAlt": 6350,
      "ĠCamp": 6351,
      "Ġboard": 6352,
      "lare": 6353,
      "Ġmeasure": 6354,
      "yond": 6355,
      "Ġsteps": 6356,
      "ĠServices": 6357,
      "legung": 6358,
      "ato": 6359,
      "Ġsafe": 6360,
      "ĠTer": 6361,
      "ĠeinschlieÃŁlich": 6362,
      "ĠDown": 6363,
      "ĠGal": 6364,
      "rÃ¤fte": 6365,
      "Ġstarted": 6366,
      "ĠMÃ¤rz": 6367,
      "ĠStar": 6368,
      "coming": 6369,
      "Ġdetermin": 6370,
      "Ġallowed": 6371,
      "porate": 6372,
      "ĠÃ¤ndern": 6373,
      "Ġfishing": 6374,
      "ĠMart": 6375,
      "Ġprocedures": 6376,
      "wa": 6377,
      "Ġactivity": 6378,
      "ronic": 6379,
      "Ġrich": 6380,
      "cker": 6381,
      "ĠgenieÃŁen": 6382,
      "conomic": 6383,
      "ologien": 6384,
      "falt": 6385,
      "ĠExper": 6386,
      "ĠFilm": 6387,
      "Ġtask": 6388,
      "ades": 6389,
      "Ġproduce": 6390,
      "ĠjÃ¼n": 6391,
      "Ġmedium": 6392,
      "Ġvertreten": 6393,
      "Ã¤mt": 6394,
      "Ġhous": 6395,
      "Ġinstrument": 6396,
      "ĠRights": 6397,
      "Ġfisher": 6398,
      "ugg": 6399,
      "Ġdiv": 6400,
      "etary": 6401,
      "Ġstatus": 6402,
      "ĠPrÃ¼": 6403,
      "ĠOktober": 6404,
      "angt": 6405,
      "ĠOrgan": 6406,
      "ĠAnforderungen": 6407,
      "Ġkonzentr": 6408,
      "anlage": 6409,
      "ĠSchweiz": 6410,
      "ĠPap": 6411,
      "Ġkeiner": 6412,
      "ĠToday": 6413,
      "ĠFlughafen": 6414,
      "ĠServer": 6415,
      "Ġhervorra": 6416,
      "ĠKÃ¼che": 6417,
      "ĠEm": 6418,
      "Ġoperation": 6419,
      "ĠBerichts": 6420,
      "ĠEd": 6421,
      "prises": 6422,
      "Ġaccep": 6423,
      "Ġpurs": 6424,
      "dra": 6425,
      "bor": 6426,
      "isp": 6427,
      "utter": 6428,
      "Ġlegislative": 6429,
      "ĠAbend": 6430,
      "Ġsource": 6431,
      "Ar": 6432,
      "altet": 6433,
      "Ġcompromise": 6434,
      "Ġfall": 6435,
      "ĠCap": 6436,
      "zone": 6437,
      "ĠZeich": 6438,
      "Ġmorgen": 6439,
      "Ġcontribution": 6440,
      "ĠÃĸffentlichkeit": 6441,
      "ĠtÃ¤": 6442,
      "Ġprovisions": 6443,
      "Ġdut": 6444,
      "EP": 6445,
      "Ġdamage": 6446,
      "Ġrelation": 6447,
      "overty": 6448,
      "ĠVorschriften": 6449,
      "ĠStÃ¤d": 6450,
      "Ġexact": 6451,
      "ĠDiskussion": 6452,
      "Ġmor": 6453,
      "Ġbetroffen": 6454,
      "ĠAnwend": 6455,
      "ĠKan": 6456,
      "ĠbeschÃ¤ft": 6457,
      "oder": 6458,
      "soft": 6459,
      "FR": 6460,
      "Ġdisp": 6461,
      "Mit": 6462,
      "lÃ¤nd": 6463,
      "ĠGÃ¤stebewertungen": 6464,
      "Ġsan": 6465,
      "ĠDemoc": 6466,
      "ĠStÃ¤r": 6467,
      "itude": 6468,
      "âĢľ,": 6469,
      "letzt": 6470,
      "ĠSm": 6471,
      "ibil": 6472,
      "see": 6473,
      "ĠUnternehmens": 6474,
      "24": 6475,
      "ĠBundes": 6476,
      "ĠSite": 6477,
      "Ġwritten": 6478,
      "polit": 6479,
      "enntnis": 6480,
      "ĠGrenzen": 6481,
      "Ġinstruments": 6482,
      "ĠLandwirtschaft": 6483,
      "ĠEvery": 6484,
      "ĠErzeug": 6485,
      "no": 6486,
      "ivity": 6487,
      "Ġword": 6488,
      "ĠGip": 6489,
      "ĠBereiche": 6490,
      "ĠSpanish": 6491,
      "ĠWider": 6492,
      "ĠTransparenz": 6493,
      "kosten": 6494,
      "Ġvillage": 6495,
      "ĠEle": 6496,
      "lines": 6497,
      "Ġlabour": 6498,
      "Ġforder": 6499,
      "Ġleisten": 6500,
      "Ġdise": 6501,
      "ienten": 6502,
      "Ġcompon": 6503,
      "ĠJuli": 6504,
      "Ġfehl": 6505,
      "Ġappe": 6506,
      "ĠArbeitnehmer": 6507,
      "Ġerwarten": 6508,
      "itial": 6509,
      "Ġkonnten": 6510,
      "Ġleider": 6511,
      "ĠDevelopment": 6512,
      "annen": 6513,
      "ira": 6514,
      "Ġgiving": 6515,
      "Ġliberal": 6516,
      "Ġdistance": 6517,
      "Ġeingesetzt": 6518,
      "ĠhÃ¤ufig": 6519,
      "ĠÃ¼berw": 6520,
      "Ã¼hungen": 6521,
      "ĠTagesordnung": 6522,
      "dienst": 6523,
      "Ġkit": 6524,
      "oker": 6525,
      "ĠTex": 6526,
      "Ġeigentlich": 6527,
      "ford": 6528,
      "Ġourselves": 6529,
      "ĠBilder": 6530,
      "ĠGesundheits": 6531,
      ".)": 6532,
      "ĠSystems": 6533,
      "Ġpen": 6534,
      "ĠDuring": 6535,
      "Ġgain": 6536,
      "Ġcriteria": 6537,
      "ĠEmpfehl": 6538,
      "Ġhistorical": 6539,
      "Ġstatement": 6540,
      "Ġconven": 6541,
      "Ġloss": 6542,
      "ĠPrinzip": 6543,
      "rats": 6544,
      "Ġgot": 6545,
      "ifik": 6546,
      "ĠAnsatz": 6547,
      "ĠAnfrage": 6548,
      "Ġminor": 6549,
      "ĠIst": 6550,
      "Ġregel": 6551,
      "Ġwenige": 6552,
      "Ġdocuments": 6553,
      "ĠBelg": 6554,
      "ĠPrÃ¤sidenten": 6555,
      "wesen": 6556,
      "Ġdat": 6557,
      "ĠNationen": 6558,
      "Ġklein": 6559,
      "Ġgenommen": 6560,
      "Ġgeworden": 6561,
      "Ġprefer": 6562,
      "ĠHung": 6563,
      "ĠVal": 6564,
      "Ġevalu": 6565,
      "ateral": 6566,
      "works": 6567,
      "Ġviolence": 6568,
      "ĠPortugal": 6569,
      "Ġmountain": 6570,
      "ĠEre": 6571,
      "Ġeleg": 6572,
      "Ġzentr": 6573,
      "ĠJe": 6574,
      "ĠdurchgefÃ¼hrt": 6575,
      "Ġcomprehens": 6576,
      "Ġverm": 6577,
      "Ġmem": 6578,
      "Ġwon": 6579,
      "ĠKur": 6580,
      "Ġlaunch": 6581,
      "ĠShe": 6582,
      "cret": 6583,
      "Ġfinally": 6584,
      "Ġfirm": 6585,
      "ĠMult": 6586,
      "Ġstructure": 6587,
      "freund": 6588,
      "ĠReal": 6589,
      "Ġinterpre": 6590,
      "Ġbase": 6591,
      "Ġbenefits": 6592,
      "Ġgran": 6593,
      "ĠNeu": 6594,
      "ĠInvestitionen": 6595,
      "23": 6596,
      "uche": 6597,
      "Ġtypes": 6598,
      "ground": 6599,
      "fun": 6600,
      "ĠVilla": 6601,
      "forderung": 6602,
      "Ã±": 6603,
      "ĠSommer": 6604,
      "Ġfell": 6605,
      "orgt": 6606,
      "ĠInn": 6607,
      "Ġunmittel": 6608,
      "ĠLinux": 6609,
      "80": 6610,
      "lichkeiten": 6611,
      "Ġdepart": 6612,
      "ĠCost": 6613,
      "ĠberÃ¼hm": 6614,
      "ĠJuly": 6615,
      "orgung": 6616,
      "cture": 6617,
      "ĠbenÃ¶tigen": 6618,
      "iete": 6619,
      "ograf": 6620,
      "Ġnied": 6621,
      "ĠSinne": 6622,
      "Ġbrit": 6623,
      "Ġfilm": 6624,
      "Ġpath": 6625,
      "ĠSign": 6626,
      "ierende": 6627,
      "Ġgele": 6628,
      "ĠSchwier": 6629,
      "ĠOst": 6630,
      "ĠAuftrag": 6631,
      "ĠJanuar": 6632,
      "Ġsuchen": 6633,
      "uls": 6634,
      "Ġimmediately": 6635,
      "bin": 6636,
      "ĠTa": 6637,
      "Ġsection": 6638,
      "ĠComputer": 6639,
      "Ġedit": 6640,
      "Ġbra": 6641,
      "Ġconstant": 6642,
      "ought": 6643,
      "ĠMany": 6644,
      "Office": 6645,
      "ĠGrÃ¼nden": 6646,
      "ĠCO": 6647,
      "Ġaktuellen": 6648,
      "Ġworth": 6649,
      "ST": 6650,
      "Ġwest": 6651,
      "ummer": 6652,
      "ĠhÃ¶her": 6653,
      "Ġelements": 6654,
      "Ġwine": 6655,
      "Ġhighest": 6656,
      "Ġfreund": 6657,
      "ĠUntersuch": 6658,
      "ĠAfghan": 6659,
      "ĠVerÃ¤nder": 6660,
      "Ġihres": 6661,
      "ĠeuropÃ¤ischer": 6662,
      "ĠFirma": 6663,
      "Ġdistribution": 6664,
      "Ġangesichts": 6665,
      "ĠBulgar": 6666,
      "drÃ¼cklich": 6667,
      "Ġobserv": 6668,
      "EM": 6669,
      "Ġgas": 6670,
      "ĠIraq": 6671,
      "ĠHel": 6672,
      "Ġthreat": 6673,
      "Ġtransparency": 6674,
      "Ã¶rt": 6675,
      "ĠAlthough": 6676,
      "ĠFree": 6677,
      "fordern": 6678,
      "enew": 6679,
      "Ġwichtiger": 6680,
      "!!": 6681,
      "Ġkannst": 6682,
      "Ġperfe": 6683,
      "Ġgrat": 6684,
      "wind": 6685,
      "zwe": 6686,
      "Ġ35": 6687,
      "Ġult": 6688,
      "ĠVorsitz": 6689,
      "ĠAuto": 6690,
      "cription": 6691,
      "Ġlower": 6692,
      "anted": 6693,
      "ĠMetho": 6694,
      "urance": 6695,
      "ieht": 6696,
      "Ġkennen": 6697,
      "leitet": 6698,
      "Ġemployees": 6699,
      "Ġgefunden": 6700,
      "Ġintegrated": 6701,
      "OT": 6702,
      "zeichnung": 6703,
      "Ġweder": 6704,
      "idge": 6705,
      "Ġcy": 6706,
      "Ġuseful": 6707,
      "ĠFlor": 6708,
      "house": 6709,
      "ĠbezÃ¼glich": 6710,
      "Ġequal": 6711,
      "Ġstock": 6712,
      "ĠRede": 6713,
      "teuer": 6714,
      "ĠJava": 6715,
      "Ġgre": 6716,
      "Ġdein": 6717,
      "ĠTradition": 6718,
      "ĠProjekte": 6719,
      "zusch": 6720,
      "Ġ1997": 6721,
      "Ġagenda": 6722,
      "Ġnumerous": 6723,
      "ĠNr": 6724,
      "Ġalternative": 6725,
      "ĠAuffassung": 6726,
      "Ġlate": 6727,
      "Ġgeschaffen": 6728,
      "Ġaffect": 6729,
      "ĠUniversity": 6730,
      "orning": 6731,
      "Ġreading": 6732,
      "Ġselect": 6733,
      "Ã¼cken": 6734,
      "Ġvorge": 6735,
      "ĠursprÃ¼n": 6736,
      "Ġparking": 6737,
      "Ġzeit": 6738,
      "eks": 6739,
      "ĠMeine": 6740,
      "ĠOl": 6741,
      "ĠAufenthalt": 6742,
      "aign": 6743,
      "Ġapplied": 6744,
      "ĠInnen": 6745,
      "ammlung": 6746,
      "Ġhom": 6747,
      "Ġdrive": 6748,
      "Un": 6749,
      "Ġ31": 6750,
      "--": 6751,
      "ĠGott": 6752,
      "Ġchallenges": 6753,
      "zt": 6754,
      "head": 6755,
      "Ġelections": 6756,
      "ĠSache": 6757,
      "Ġhelpful": 6758,
      "ĠDVD": 6759,
      "Ã¤ngen": 6760,
      "mosphÃ¤re": 6761,
      "ĠYour": 6762,
      "Ġhalte": 6763,
      "Ġreality": 6764,
      "Ġsonst": 6765,
      "ĠLebensmittel": 6766,
      "ĠCentre": 6767,
      "Ġmis": 6768,
      "ĠMann": 6769,
      "leb": 6770,
      "ais": 6771,
      "bezogen": 6772,
      "Ġconsist": 6773,
      "ral": 6774,
      "Ġcoast": 6775,
      "Ġemb": 6776,
      "Ġapartments": 6777,
      "ĠFurthermore": 6778,
      "ym": 6779,
      "Ã¤te": 6780,
      "Ġprocesses": 6781,
      "Ġpoverty": 6782,
      "ĠSolidar": 6783,
      "ĠMobil": 6784,
      "Ġpayment": 6785,
      "Ġround": 6786,
      "wortern": 6787,
      "ĠKoh": 6788,
      "ĠBeginn": 6789,
      "Ġtools": 6790,
      "Ġeher": 6791,
      "Ġdaily": 6792,
      "Ġski": 6793,
      "Ġemiss": 6794,
      "Ġconsequences": 6795,
      "elten": 6796,
      "front": 6797,
      "zehn": 6798,
      "ĠÃ¼brigen": 6799,
      "ĠPrÃ¤sidentschaft": 6800,
      "Ġteach": 6801,
      "achtung": 6802,
      "legation": 6803,
      "Ġunemp": 6804,
      "Ġerneut": 6805,
      "ĠÌ": 6806,
      "Ġsaying": 6807,
      "Ġoffering": 6808,
      "Ġsieht": 6809,
      "ĠRegeln": 6810,
      "phone": 6811,
      "ĠÃ¼berprÃ¼": 6812,
      "Ġbem": 6813,
      "Ġoccas": 6814,
      "ĠbegrÃ¼ÃŁe": 6815,
      "Ġcrucial": 6816,
      "Ġtim": 6817,
      "Ġdiejenigen": 6818,
      "Ġtreffen": 6819,
      "Ġsolidarity": 6820,
      "mÃ¶": 6821,
      "ĠHeute": 6822,
      "Ġbringt": 6823,
      "Ġmut": 6824,
      "Ã¼nde": 6825,
      "Ġanalysis": 6826,
      "Ġbad": 6827,
      "ĠGast": 6828,
      "Ġdrink": 6829,
      "zufÃ¼hren": 6830,
      "ĠTerm": 6831,
      "Ã¼nstler": 6832,
      "park": 6833,
      "ĠEreign": 6834,
      "UR": 6835,
      "Ġpal": 6836,
      "Ġbeyond": 6837,
      "sprozess": 6838,
      "Ġschl": 6839,
      "richten": 6840,
      "Ġentsprechenden": 6841,
      "ĠBeteil": 6842,
      "kom": 6843,
      "ĠArmut": 6844,
      "Ġperman": 6845,
      "aktion": 6846,
      "Ġlegit": 6847,
      "Ġign": 6848,
      "ĠBahn": 6849,
      "ĠStraÃŁen": 6850,
      "engen": 6851,
      "izin": 6852,
      "Ġphot": 6853,
      "ĠAre": 6854,
      "back": 6855,
      "sprÃ¼": 6856,
      "ĠÃĦnderung": 6857,
      "ogle": 6858,
      "Ġziehen": 6859,
      "Ġundert": 6860,
      "Ġpersons": 6861,
      "Ã¶ren": 6862,
      "ĠMos": 6863,
      "Ġplant": 6864,
      "Ġpaid": 6865,
      "Ã§": 6866,
      "folge": 6867,
      "Ġbeitragen": 6868,
      "Ġwissenschaft": 6869,
      "Ġkrit": 6870,
      "Ġerfahren": 6871,
      "ione": 6872,
      "ĠÃ¶ffentliche": 6873,
      "afe": 6874,
      "Ġhumanit": 6875,
      "entur": 6876,
      "Ġoffered": 6877,
      "Ġvan": 6878,
      "Ġspirit": 6879,
      "Ġconflict": 6880,
      "hesion": 6881,
      "ĠAufgaben": 6882,
      "Ġcolleagues": 6883,
      "ded": 6884,
      "rÃ¼": 6885,
      "Ġthought": 6886,
      "anging": 6887,
      "Ġinfrastru": 6888,
      "Ġgoes": 6889,
      "ola": 6890,
      "ares": 6891,
      "spricht": 6892,
      "scheinlich": 6893,
      "IA": 6894,
      "hilfe": 6895,
      "Ġhinzu": 6896,
      "ĠSchlusselwortern": 6897,
      "ĠBemÃ¼hungen": 6898,
      "ĠFÃ¤llen": 6899,
      "Ġpractical": 6900,
      "Ġentsprechend": 6901,
      "Ġillegal": 6902,
      "ĠLinie": 6903,
      "Ġlas": 6904,
      "ĠFolge": 6905,
      "Ġhappy": 6906,
      "ufe": 6907,
      "ĠVertreter": 6908,
      "ĠSpezial": 6909,
      "ĠMonaten": 6910,
      "Ġlangfrist": 6911,
      "wser": 6912,
      "gy": 6913,
      "ĠZentral": 6914,
      "ĠMediterranean": 6915,
      "losen": 6916,
      "Ġvergessen": 6917,
      "Ġsufficient": 6918,
      "ĠAgrar": 6919,
      "ĠVen": 6920,
      "ula": 6921,
      "Ġideas": 6922,
      "Ġzehn": 6923,
      "Ġkur": 6924,
      "ĠWinter": 6925,
      "vors": 6926,
      "ya": 6927,
      "ĠMer": 6928,
      "ĠTH": 6929,
      "ye": 6930,
      "ĠBedÃ¼rf": 6931,
      "leistung": 6932,
      "ĠGas": 6933,
      "schlieÃŁen": 6934,
      "Ġhil": 6935,
      "Ġrequires": 6936,
      "ĠKor": 6937,
      "ĠfrÃ¼her": 6938,
      "fo": 6939,
      "Europ": 6940,
      "othe": 6941,
      "ĠNachbar": 6942,
      "Ġhar": 6943,
      "fÃ¼hl": 6944,
      "Ġverhindern": 6945,
      "iability": 6946,
      "ĠÂ»": 6947,
      "wart": 6948,
      "Ġban": 6949,
      "ĠBa": 6950,
      "Ġkil": 6951,
      "iveau": 6952,
      "obby": 6953,
      "Ġcurren": 6954,
      "ĠKredit": 6955,
      "view": 6956,
      "Ġforces": 6957,
      "Ġexception": 6958,
      "angeb": 6959,
      "ĠRestaurants": 6960,
      "Ġausgezeich": 6961,
      "Ð»": 6962,
      "ĠBÃ¼rgern": 6963,
      "PS": 6964,
      "sych": 6965,
      "Ġgenannten": 6966,
      "vere": 6967,
      "Ã¼cht": 6968,
      "Ġgetan": 6969,
      "Ġunbe": 6970,
      "Ġweak": 6971,
      "cia": 6972,
      "ĠDritt": 6973,
      "ocol": 6974,
      "ĠSitzung": 6975,
      "based": 6976,
      "Ġorganisations": 6977,
      "ĠDirective": 6978,
      "ĠRepublik": 6979,
      "ĠWunsch": 6980,
      "ĠRessourcen": 6981,
      "strumente": 6982,
      "estic": 6983,
      "craft": 6984,
      "Ġpie": 6985,
      "heben": 6986,
      "{{": 6987,
      "Ġbehandelt": 6988,
      "ĠVerl": 6989,
      "schlag": 6990,
      "Ġspee": 6991,
      "Ġminimum": 6992,
      "ĠhÃ¤tten": 6993,
      "hold": 6994,
      "Ġweeks": 6995,
      "Ġadvantage": 6996,
      "Ġdoubt": 6997,
      "ĠVÃ¶lk": 6998,
      "Ġfrequ": 6999,
      "Ġtomor": 7000,
      "tellten": 7001,
      "cape": 7002,
      "Ġerfolgt": 7003,
      "ĠprÃ¤sent": 7004,
      "ĠTagen": 7005,
      "Ġtomorrow": 7006,
      "Ġcongratulate": 7007,
      "ĠTest": 7008,
      "98": 7009,
      "DF": 7010,
      "Ãł": 7011,
      "ĠLas": 7012,
      "Ġvorher": 7013,
      "Ġmodified": 7014,
      "ĠEven": 7015,
      "irl": 7016,
      "ifel": 7017,
      "Ġhistoric": 7018,
      "ĠjÃ¼ng": 7019,
      "Ġanderem": 7020,
      "ĠBehandlung": 7021,
      "ĠPalest": 7022,
      "Ã¶ÃŁe": 7023,
      "ĠPublic": 7024,
      "Ġwaste": 7025,
      "Ġimplemented": 7026,
      "ĠEigent": 7027,
      "Ġbeant": 7028,
      "ĠEnd": 7029,
      "Ġhear": 7030,
      "programm": 7031,
      "Ġpartnership": 7032,
      "Ġsecure": 7033,
      "Ġnimmt": 7034,
      "ordination": 7035,
      "Ġsales": 7036,
      "ĠSecurity": 7037,
      "ilosoph": 7038,
      "Ġbuy": 7039,
      "ĠVideo": 7040,
      "Ġshopping": 7041,
      "Ġclients": 7042,
      "ĠHuman": 7043,
      "ibe": 7044,
      "Ġrelating": 7045,
      "Ġlines": 7046,
      "Ġrenew": 7047,
      "ischem": 7048,
      "Ã¼ge": 7049,
      "Ġreference": 7050,
      "gewiesen": 7051,
      "Ã¼rger": 7052,
      "Ġstarting": 7053,
      "esellschaften": 7054,
      "aint": 7055,
      "Ġpublished": 7056,
      "Ġbedroom": 7057,
      "Ġmonitoring": 7058,
      "ĠMicrosoft": 7059,
      "Ġreich": 7060,
      "Ġversucht": 7061,
      "SS": 7062,
      "Ġol": 7063,
      "Ġsyn": 7064,
      "Ġrestr": 7065,
      "Ġpaar": 7066,
      "Ġmorning": 7067,
      "ĠAnstr": 7068,
      "Ġbesondere": 7069,
      "ĠMilliar": 7070,
      "ĠGrand": 7071,
      "Ã¤nge": 7072,
      "vis": 7073,
      "Ġlives": 7074,
      "wÃ¼n": 7075,
      "Ġgrowing": 7076,
      "ĠGerichts": 7077,
      "Ġcomprehensive": 7078,
      "Ġcaused": 7079,
      "ĠMc": 7080,
      "II": 7081,
      "Ġmaximum": 7082,
      "ĠAustria": 7083,
      "ĠStock": 7084,
      "Ġreduction": 7085,
      "ĠInhalt": 7086,
      "Ġuner": 7087,
      "Ġefficiency": 7088,
      "ĠAmendment": 7089,
      "ĠVergangen": 7090,
      "Ġoperating": 7091,
      "ĠKn": 7092,
      "ĠHal": 7093,
      "ĠBÃ¼rgerinnen": 7094,
      "icken": 7095,
      "ĠWerte": 7096,
      "Ġcircum": 7097,
      "ĠGest": 7098,
      "Ġjen": 7099,
      "Ġwr": 7100,
      "pective": 7101,
      "Ġausreich": 7102,
      "Ġanti": 7103,
      "Ġusw": 7104,
      "frastruktur": 7105,
      "ĠAk": 7106,
      "Ġfordern": 7107,
      "schreit": 7108,
      "Ġready": 7109,
      "ĠMass": 7110,
      "ĠAtmosphÃ¤re": 7111,
      "ĠBetrieb": 7112,
      "Ġmachine": 7113,
      "ĠGebÃ¤ude": 7114,
      "theless": 7115,
      "ĠBot": 7116,
      "):": 7117,
      "Ġaccordance": 7118,
      "Ġsechs": 7119,
      "ungsver": 7120,
      "Ġmeaning": 7121,
      "ĠErfahrungen": 7122,
      "hafte": 7123,
      "zielle": 7124,
      "ret": 7125,
      "Ġful": 7126,
      "nungen": 7127,
      "ĠCop": 7128,
      "ĠForschungs": 7129,
      "Ġcampaign": 7130,
      "ĠmÃ¼": 7131,
      "Ġrecon": 7132,
      "ategie": 7133,
      "Å¡": 7134,
      "ĠAller": 7135,
      "schÃ¶": 7136,
      "ĠFinanzierung": 7137,
      "Ġserver": 7138,
      "Die": 7139,
      "Ġmitt": 7140,
      "Ġoptions": 7141,
      "We": 7142,
      "ĠNacht": 7143,
      "ĠÃ¼berhaupt": 7144,
      "gruppe": 7145,
      "ĠNatÃ¼rlich": 7146,
      "Ġ194": 7147,
      "Ġgewesen": 7148,
      "Ġsports": 7149,
      "oon": 7150,
      "Ġunbed": 7151,
      "ĠGreen": 7152,
      "ĠMinder": 7153,
      "ius": 7154,
      "ĠWhile": 7155,
      "Ġinitial": 7156,
      "03": 7157,
      "ĠgÃ¼nst": 7158,
      "ulated": 7159,
      "bas": 7160,
      "Ġstreet": 7161,
      "altungen": 7162,
      "ĠerfÃ¼llen": 7163,
      "Ġanything": 7164,
      "ĠGef": 7165,
      "ĠPet": 7166,
      "Ã´": 7167,
      "Ġded": 7168,
      "ichert": 7169,
      "pool": 7170,
      "ado": 7171,
      "ĠerklÃ¤rt": 7172,
      "stitutional": 7173,
      "standing": 7174,
      "Ġfolgen": 7175,
      "Ġsal": 7176,
      "ĠDav": 7177,
      "Ġwarum": 7178,
      "Ġsometimes": 7179,
      "Ġurg": 7180,
      "Ġzahlreichen": 7181,
      "ĠIniti": 7182,
      "ĠEss": 7183,
      "ĠAltern": 7184,
      "ĠberÃ¼cksichtigt": 7185,
      "Ġbegin": 7186,
      "book": 7187,
      "ĠErd": 7188,
      "LA": 7189,
      "itation": 7190,
      "ĠDel": 7191,
      "Ġrapid": 7192,
      "ĠProtokoll": 7193,
      "ĠTechnologie": 7194,
      "Ġtechnologies": 7195,
      "itch": 7196,
      "pack": 7197,
      "Ġborder": 7198,
      "ĠBu": 7199,
      "ĠgrÃ¶ÃŁer": 7200,
      "Ġcritic": 7201,
      "Ġplayers": 7202,
      "Ġmensch": 7203,
      "alyse": 7204,
      "atform": 7205,
      "ĠId": 7206,
      "lim": 7207,
      "Ġoffiz": 7208,
      "ÂŃ": 7209,
      "Ġpictures": 7210,
      "Ġadvert": 7211,
      "Ġextent": 7212,
      "Ġcharm": 7213,
      "Ġbetreff": 7214,
      "Ġgerecht": 7215,
      "ĠVerteid": 7216,
      "ĠCenter": 7217,
      "ĠsÃ¤mt": 7218,
      "Ġprobably": 7219,
      "zy": 7220,
      "ĠHy": 7221,
      "ĠPraxis": 7222,
      "ĠLassen": 7223,
      "Ġbegan": 7224,
      "Ġchance": 7225,
      "Ġlanguages": 7226,
      "Ġones": 7227,
      "ĠÌģ": 7228,
      "izienz": 7229,
      "Ġswimming": 7230,
      "ĠGel": 7231,
      "Ġterrorism": 7232,
      "Ġremov": 7233,
      "Ġexport": 7234,
      "flÃ¤che": 7235,
      "}}": 7236,
      "ĠConference": 7237,
      "ĠAspekte": 7238,
      "Ġworldwide": 7239,
      "ĠVergangenheit": 7240,
      "Ġfarmers": 7241,
      "Ġstimmen": 7242,
      "Ġrichtige": 7243,
      "Ġstaat": 7244,
      "Ġbur": 7245,
      "mus": 7246,
      "Ġwelches": 7247,
      "Ġeingeb": 7248,
      "Ġsav": 7249,
      "utive": 7250,
      "ichern": 7251,
      "ĠTerrorismus": 7252,
      "Ġcounter": 7253,
      "board": 7254,
      "Ġdecor": 7255,
      "Ġmethods": 7256,
      "ĠHerz": 7257,
      "ĠBeruf": 7258,
      "ĠMenschenrechts": 7259,
      "ĠDat": 7260,
      "ĠAirport": 7261,
      "ĠFÃ¤h": 7262,
      "Ġjeweiligen": 7263,
      "ĠMand": 7264,
      "ĠJohn": 7265,
      "',": 7266,
      "Ġinterested": 7267,
      "legten": 7268,
      "Ġvoting": 7269,
      "ĠgrÃ¶ÃŁte": 7270,
      "Ã¤llt": 7271,
      "Ġchallenge": 7272,
      "ifically": 7273,
      "ĠSpanien": 7274,
      "Ġverpflichtet": 7275,
      "sc": 7276,
      "Ġemail": 7277,
      "Ġtransparent": 7278,
      "Ġlands": 7279,
      "Ġsectors": 7280,
      "oke": 7281,
      "grenz": 7282,
      "Ġrespond": 7283,
      "itten": 7284,
      "iding": 7285,
      "ĠHoff": 7286,
      "Ġeinheit": 7287,
      "ĠTor": 7288,
      "Ġstets": 7289,
      "ĠDoppel": 7290,
      "ĠStart": 7291,
      "Ġtourist": 7292,
      "Ġcast": 7293,
      "Ġadopt": 7294,
      "izes": 7295,
      "izing": 7296,
      "Ġmotor": 7297,
      "CO": 7298,
      "Ġscientific": 7299,
      "Ġseines": 7300,
      "ĠAc": 7301,
      "Ġhistorischen": 7302,
      "ĠZweitens": 7303,
      "Ġsymbol": 7304,
      "Ġwanted": 7305,
      "ĠRats": 7306,
      "Ġbill": 7307,
      "ĠBal": 7308,
      "ĠVergleich": 7309,
      "zeiten": 7310,
      "ĠGran": 7311,
      "Ġarrange": 7312,
      "Ġles": 7313,
      "Ġehem": 7314,
      "Ġreflect": 7315,
      "IV": 7316,
      "ĠPH": 7317,
      "ĠwÃ¤hlen": 7318,
      "ĠEst": 7319,
      "ĠWaren": 7320,
      "reland": 7321,
      "Ġcandid": 7322,
      "ktive": 7323,
      "Ġ1996": 7324,
      "vollen": 7325,
      "Ġbald": 7326,
      "Ġvalid": 7327,
      "Ġcert": 7328,
      "igation": 7329,
      "ĠLang": 7330,
      "karte": 7331,
      "Ġwach": 7332,
      "Ġgames": 7333,
      "ĠOpfer": 7334,
      "ĠGene": 7335,
      "sam": 7336,
      "ĠauÃŁerhalb": 7337,
      "ĠViele": 7338,
      "Ġrelease": 7339,
      "enze": 7340,
      "Ġaccepted": 7341,
      "ĠSchritte": 7342,
      "Ġselection": 7343,
      "nungs": 7344,
      "ĠbetrÃ¤": 7345,
      "rÃ¤nkt": 7346,
      "Ġbusinesses": 7347,
      "Ġrele": 7348,
      "Ġexerc": 7349,
      "Ġapprec": 7350,
      "ĠFrankf": 7351,
      "ichtlich": 7352,
      "ĠbefÃ¼r": 7353,
      "Ġmodernen": 7354,
      "abkommen": 7355,
      "enh": 7356,
      "ĠEas": 7357,
      "figur": 7358,
      "Ġzumindest": 7359,
      "Ġverantwortlich": 7360,
      "ĠBerat": 7361,
      "fence": 7362,
      "wel": 7363,
      "meer": 7364,
      "ĠZivil": 7365,
      "SP": 7366,
      "poses": 7367,
      "losigkeit": 7368,
      "Ġdespite": 7369,
      "Ġpowers": 7370,
      "ĠHil": 7371,
      "ĠRechtsvorschriften": 7372,
      "Ġgemein": 7373,
      "ĠFirmen": 7374,
      "ĠChinese": 7375,
      "ĠTem": 7376,
      "âĢĿ.": 7377,
      "Ġblo": 7378,
      "Ġupd": 7379,
      "tempt": 7380,
      "Ġkam": 7381,
      "ĠSM": 7382,
      "Ġfolgt": 7383,
      "Ġfine": 7384,
      "iell": 7385,
      "ĠGoogle": 7386,
      "ĠVertrauen": 7387,
      "ĠtÃ¤t": 7388,
      "verage": 7389,
      "iant": 7390,
      "Ġlay": 7391,
      "Ġwalking": 7392,
      "ĠIreland": 7393,
      "ĠGarten": 7394,
      "ĠSpieler": 7395,
      "Ġinfluence": 7396,
      "Ġvisitors": 7397,
      "Ġlies": 7398,
      "ĠAngelegenheit": 7399,
      "ĠvollstÃ¤ndig": 7400,
      "zul": 7401,
      "Ġverab": 7402,
      "ĠNAT": 7403,
      "Ġexpert": 7404,
      "Ġheutigen": 7405,
      "Ġverkauf": 7406,
      "Ġgenu": 7407,
      "Ġgenug": 7408,
      "Ġimages": 7409,
      "ĠschÃ¼tzen": 7410,
      "Ġremember": 7411,
      "Ã¤mpfen": 7412,
      "hilfen": 7413,
      "ĠâĢĶ": 7414,
      "Ġenorm": 7415,
      "Ġtrying": 7416,
      "Ġraised": 7417,
      "Ġglo": 7418,
      "atalog": 7419,
      "Ġlost": 7420,
      "ĠChance": 7421,
      "ĠpersÃ¶nlichen": 7422,
      "Ġseparate": 7423,
      "ĠGre": 7424,
      "Ġcoup": 7425,
      "Ġcompetit": 7426,
      "ĠDazu": 7427,
      "ĠSwiss": 7428,
      "ĠAngelegenheiten": 7429,
      "kÃ¼nft": 7430,
      "Ġabsolutely": 7431,
      "Ġfant": 7432,
      "ĠSchwierigkeiten": 7433,
      "erkennung": 7434,
      "ĠHerausforderungen": 7435,
      "raten": 7436,
      "ĠDann": 7437,
      "Ġris": 7438,
      "urb": 7439,
      "ĠÂ«": 7440,
      "affe": 7441,
      "ĠParteien": 7442,
      "barer": 7443,
      "lose": 7444,
      "Ġelegant": 7445,
      "ĠstÃ¤rker": 7446,
      "akte": 7447,
      "Pr": 7448,
      "anda": 7449,
      "omb": 7450,
      "Ġkomp": 7451,
      "hers": 7452,
      "Ġtechnischen": 7453,
      "Ġsubstant": 7454,
      "ĠBerichterstatterin": 7455,
      "ids": 7456,
      "konom": 7457,
      "ĠDownload": 7458,
      "ĠTier": 7459,
      "ĠSen": 7460,
      "Ġheav": 7461,
      "Ġfolgenden": 7462,
      "Ġerlaubt": 7463,
      "ĠEinwander": 7464,
      "ĠRegierungs": 7465,
      "ĠprÃ¼": 7466,
      "Ġanders": 7467,
      "Ġerinnern": 7468,
      "imed": 7469,
      "ĠausschlieÃŁlich": 7470,
      "werte": 7471,
      "ĠMess": 7472,
      "ĠDrit": 7473,
      "Ġcrimin": 7474,
      "Ġbessere": 7475,
      "ĠAllerdings": 7476,
      "Ġdemands": 7477,
      "ĠAC": 7478,
      "quem": 7479,
      "how": 7480,
      "ĠNun": 7481,
      "Ġdeutschen": 7482,
      "ĠAnnahme": 7483,
      "ev": 7484,
      "ĠUK": 7485,
      "hÃ¤ltnis": 7486,
      "handel": 7487,
      "ĠOrd": 7488,
      "gesetz": 7489,
      "icket": 7490,
      "ĠVoll": 7491,
      "Ġinsp": 7492,
      "zusetzen": 7493,
      "Ġborders": 7494,
      "ĠPlay": 7495,
      "ĠHinsicht": 7496,
      "hotel": 7497,
      "anc": 7498,
      "ĠPrem": 7499,
      "Ġsil": 7500,
      "Ġspezif": 7501,
      "Ġclub": 7502,
      "Ġunten": 7503,
      "ĠLandwir": 7504,
      "Ġaffe": 7505,
      "ga": 7506,
      "Ġangemessen": 7507,
      "ĠSam": 7508,
      "Ġhonour": 7509,
      "Ġnamely": 7510,
      "Ġfields": 7511,
      "chtet": 7512,
      "bit": 7513,
      "ĠFlex": 7514,
      "Ġerwartet": 7515,
      "tere": 7516,
      "97": 7517,
      "Ġ).": 7518,
      "Ġslow": 7519,
      "Ġmanufactur": 7520,
      "Ġ195": 7521,
      "ĠSecondly": 7522,
      "Ġinnovation": 7523,
      "ĠMoreover": 7524,
      "Ġlisten": 7525,
      "ĠProzent": 7526,
      "rieb": 7527,
      "Ġzweit": 7528,
      "Ġanerk": 7529,
      "mel": 7530,
      "amin": 7531,
      "ION": 7532,
      "Ġgek": 7533,
      "sÃ¤tze": 7534,
      "gehend": 7535,
      "Ġvital": 7536,
      "Ġchanged": 7537,
      "attle": 7538,
      "Ġstrategic": 7539,
      "Ġeffiz": 7540,
      "ĠIhres": 7541,
      "last": 7542,
      "ĠFalls": 7543,
      "Ġgetroffen": 7544,
      "gÃ¼lt": 7545,
      "enk": 7546,
      "ĠEinrichtung": 7547,
      "ĠIslam": 7548,
      "ĠEinige": 7549,
      "Ġverurs": 7550,
      "zulegen": 7551,
      "abr": 7552,
      "lemente": 7553,
      "Ġoverall": 7554,
      "ĠjÃ¤hr": 7555,
      "ruption": 7556,
      "Ġtrip": 7557,
      "ĠSonder": 7558,
      "ĠGold": 7559,
      "krise": 7560,
      "ĠÃ¼bernehmen": 7561,
      "ĠModell": 7562,
      "Ġmenu": 7563,
      "Ġannual": 7564,
      "Ġallgemeinen": 7565,
      "Ġkitchen": 7566,
      "Ġfire": 7567,
      "ĠSoll": 7568,
      "Ġitalien": 7569,
      "Ġcalls": 7570,
      "ĠCy": 7571,
      "ĠLiberal": 7572,
      "Ġrepresentatives": 7573,
      "ĠSupp": 7574,
      "ĠzukÃ¼nft": 7575,
      "tert": 7576,
      "ĠStellen": 7577,
      "ĠPla": 7578,
      "ĠRussian": 7579,
      "indungen": 7580,
      "Ġproceed": 7581,
      "ĠKapital": 7582,
      "ighted": 7583,
      "star": 7584,
      "bezieh": 7585,
      "Ġseason": 7586,
      "Ġgesetz": 7587,
      "Ã¤tzlich": 7588,
      "ĠProduktions": 7589,
      "engungen": 7590,
      "rogen": 7591,
      "Ġjun": 7592,
      "ĠGeneration": 7593,
      "Ġworked": 7594,
      "ĠPrÃ¤": 7595,
      "Ġinitiatives": 7596,
      "Ġgesehen": 7597,
      "iertel": 7598,
      "Ġyourself": 7599,
      "ollar": 7600,
      "aters": 7601,
      "Ġprivaten": 7602,
      "bum": 7603,
      "ziert": 7604,
      "Hotel": 7605,
      "ielt": 7606,
      "Ġwiederhol": 7607,
      "ĠAgre": 7608,
      "EG": 7609,
      "Ġsimpl": 7610,
      "ĠOnly": 7611,
      "Ġprocessing": 7612,
      "ĠArbeitsplÃ¤tze": 7613,
      "Ġwrong": 7614,
      "sprechen": 7615,
      "Ġplayer": 7616,
      "ĠÃĸsterreich": 7617,
      "gruppen": 7618,
      "Ġintended": 7619,
      "aries": 7620,
      "used": 7621,
      "Ġbitten": 7622,
      "vorsitz": 7623,
      "ĠAfghanistan": 7624,
      "Ġnegative": 7625,
      "ĠSolidaritÃ¤t": 7626,
      "Ġheard": 7627,
      "ĠbegrÃ¼ÃŁen": 7628,
      "Ġexpressed": 7629,
      "mand": 7630,
      "immern": 7631,
      "ulations": 7632,
      "Ġoffens": 7633,
      "Ġevening": 7634,
      "isely": 7635,
      "22": 7636,
      "ĠGeorg": 7637,
      "Ġbeginnen": 7638,
      "Ġdarstellt": 7639,
      "ĠTal": 7640,
      "wan": 7641,
      "Ġtrack": 7642,
      "Ġehemal": 7643,
      "ita": 7644,
      "Ġvertra": 7645,
      "ĠVerwaltung": 7646,
      "Ġcas": 7647,
      "lymp": 7648,
      "Ġsetzt": 7649,
      "ĠAng": 7650,
      "Ġangeboten": 7651,
      "Ġzudem": 7652,
      "Ġaccession": 7653,
      "wes": 7654,
      "ĠAnges": 7655,
      "ĠVerfassung": 7656,
      "inens": 7657,
      "Ġplans": 7658,
      "di": 7659,
      "Ġaward": 7660,
      "ĠMitte": 7661,
      "eignet": 7662,
      "Ġoccup": 7663,
      "Ã¶rdert": 7664,
      "ĠSÃ¼": 7665,
      "Ġbanks": 7666,
      "ĠIts": 7667,
      "//": 7668,
      "ĠNews": 7669,
      "ĠnatÃ¼r": 7670,
      "Ġendlich": 7671,
      "Ġcommitted": 7672,
      "Ġautomatisch": 7673,
      "Ġbestimmt": 7674,
      "sicherheit": 7675,
      "Ġcell": 7676,
      "itts": 7677,
      "QL": 7678,
      "Ġability": 7679,
      "Ġbir": 7680,
      "ĠMÃ¼n": 7681,
      "Ġcities": 7682,
      "Ġangene": 7683,
      "iÃ³n": 7684,
      "uses": 7685,
      "Ġflexible": 7686,
      "IF": 7687,
      "ildet": 7688,
      "ĠObwohl": 7689,
      "umin": 7690,
      "hood": 7691,
      "Ġeindeutig": 7692,
      "Ġfalls": 7693,
      "bringen": 7694,
      "ĠErstens": 7695,
      "ĠlÃ¤nd": 7696,
      "ĠMilliarden": 7697,
      "stoffe": 7698,
      "Ġdipl": 7699,
      "ĠTrotz": 7700,
      "nel": 7701,
      "ĠKonzept": 7702,
      "ystemen": 7703,
      "ĠAntrag": 7704,
      "Ġtarget": 7705,
      "Ġtraffic": 7706,
      "ĠNATO": 7707,
      "iente": 7708,
      "Ġtalking": 7709,
      "Ġlove": 7710,
      "ĠGlaub": 7711,
      "zeichen": 7712,
      "Ġrestrict": 7713,
      "ĠEinfluss": 7714,
      "auern": 7715,
      "Ġletzte": 7716,
      "ĠEind": 7717,
      "ruit": 7718,
      "ĠAusgang": 7719,
      "imat": 7720,
      "ifizierung": 7721,
      "Ġentgegen": 7722,
      "Ġgoal": 7723,
      "ĠWo": 7724,
      "ĠWissenschaft": 7725,
      "Ġfresh": 7726,
      "Ġdatab": 7727,
      "Ġdeine": 7728,
      "ĠHause": 7729,
      "Ġphoto": 7730,
      "ories": 7731,
      "ĠSlo": 7732,
      "Ġplaced": 7733,
      "ils": 7734,
      "ĠPeople": 7735,
      "Ġtal": 7736,
      "Ġconcentr": 7737,
      "set": 7738,
      "Ġsinn": 7739,
      "cluded": 7740,
      "Ġrom": 7741,
      "Ġalone": 7742,
      "ustausch": 7743,
      "ĠGod": 7744,
      "ras": 7745,
      "ĠFreiz": 7746,
      "Ġrunning": 7747,
      "gere": 7748,
      "ĠHostels": 7749,
      "kaufs": 7750,
      "Ġhot": 7751,
      "Ġ150": 7752,
      "Ġdringend": 7753,
      "Ġmainly": 7754,
      "Ġspect": 7755,
      "ĠKrank": 7756,
      "Ġjem": 7757,
      "ĠbemÃ¼": 7758,
      "ĠFalle": 7759,
      "Ġbeide": 7760,
      "ĠLeute": 7761,
      "Ġautom": 7762,
      "Ġfamilies": 7763,
      "Ġelement": 7764,
      "idelines": 7765,
      "AG": 7766,
      "ĠlÃ¤nger": 7767,
      "Ġbrand": 7768,
      "fÃ¼r": 7769,
      "Ġplanning": 7770,
      "Ġterrace": 7771,
      "Ġcohesion": 7772,
      "ĠBur": 7773,
      "Ġfear": 7774,
      "ĠAcht": 7775,
      "ĠMex": 7776,
      "Ġimproved": 7777,
      "Al": 7778,
      "acc": 7779,
      "reise": 7780,
      "Ġbege": 7781,
      "agraph": 7782,
      "Ġverme": 7783,
      "grams": 7784,
      "Ġopening": 7785,
      "ples": 7786,
      "ĠErk": 7787,
      "Ġtit": 7788,
      "Ġremind": 7789,
      "gebiet": 7790,
      "ĠZustimmung": 7791,
      "ĠVerpflichtungen": 7792,
      "itzt": 7793,
      "Ġethn": 7794,
      "ĠSchwer": 7795,
      "Ġjustice": 7796,
      "Ġapproved": 7797,
      "Ġanc": 7798,
      "ĠDub": 7799,
      "ĠAnstrengungen": 7800,
      "ores": 7801,
      "Ġkaum": 7802,
      "uly": 7803,
      "Ġdan": 7804,
      "ĠTÃ¤tigkeit": 7805,
      "Ġconfirm": 7806,
      "ĠVerhalten": 7807,
      "ibly": 7808,
      "ĠgrÃ¶ÃŁere": 7809,
      "70": 7810,
      "Ġfas": 7811,
      "Ġreforms": 7812,
      "Ġreag": 7813,
      "ĠKompromiss": 7814,
      "ĠAmb": 7815,
      "ĠAusschuÃŁ": 7816,
      "ĠGrie": 7817,
      "Ġstudents": 7818,
      "Ġincreasingly": 7819,
      "Le": 7820,
      "Ġwhom": 7821,
      "Ġbenutzt": 7822,
      "Ġconclusion": 7823,
      "Ġcomments": 7824,
      "Ġcurrency": 7825,
      "Ġattempt": 7826,
      "Ġhol": 7827,
      "Ġaffected": 7828,
      "Ġfeature": 7829,
      "Ġgenannt": 7830,
      "ĠSon": 7831,
      "ĠBade": 7832,
      "tritt": 7833,
      "Ġdecide": 7834,
      "Ġirgend": 7835,
      "Ã¼ckt": 7836,
      "bourg": 7837,
      "Ðº": 7838,
      "hrte": 7839,
      "ĠGesamt": 7840,
      "ĠRoma": 7841,
      "hy": 7842,
      "ĠOrganisationen": 7843,
      "Ġadministrative": 7844,
      "Ġumfang": 7845,
      "itory": 7846,
      "Ġcircumstances": 7847,
      "Ġgenutzt": 7848,
      "ĠAnerkennung": 7849,
      "Ġlaws": 7850,
      "zeigen": 7851,
      "quate": 7852,
      "Ġbilden": 7853,
      "Ġkomfort": 7854,
      "angs": 7855,
      "gers": 7856,
      "Ġsuitable": 7857,
      "ĠNachfol": 7858,
      "pliz": 7859,
      "las": 7860,
      "bÃ¼": 7861,
      "ĠzusÃ¤tzliche": 7862,
      "Ġcollection": 7863,
      "etten": 7864,
      "ifying": 7865,
      "Ġregime": 7866,
      "glied": 7867,
      "ĠNations": 7868,
      "Ġdiscrimin": 7869,
      "Ġinn": 7870,
      "Ġprovision": 7871,
      "Ġbezahl": 7872,
      "Ġemissions": 7873,
      "ĠCr": 7874,
      "Ġunbedingt": 7875,
      "Ġtouch": 7876,
      "ĠQualitÃ¤ts": 7877,
      "Ġautomatically": 7878,
      "ĠKauf": 7879,
      "aschine": 7880,
      "Ġreduced": 7881,
      "ĠBi": 7882,
      "Ġeingehen": 7883,
      "Ġcele": 7884,
      "ĠBon": 7885,
      "ses": 7886,
      "Ġbelieb": 7887,
      "Ã¤ndigen": 7888,
      "ĠÃľberwach": 7889,
      "Ġpo": 7890,
      "Ġbox": 7891,
      "ĠAL": 7892,
      "ĠIdee": 7893,
      "Ġmoderne": 7894,
      "Ġphone": 7895,
      "Ġdelivery": 7896,
      "Ġentspricht": 7897,
      "ĠÃ¼berzeugt": 7898,
      "Ġpriorities": 7899,
      "wenden": 7900,
      "ĠCosta": 7901,
      "**": 7902,
      "Ġmill": 7903,
      "ĠDre": 7904,
      "Ġoben": 7905,
      "ray": 7906,
      "ĠEt": 7907,
      "enty": 7908,
      "Ġentstehen": 7909,
      "endence": 7910,
      "ĠImmobil": 7911,
      "Ġfeed": 7912,
      "Ġvorgelegt": 7913,
      "ĠselbstverstÃ¤ndlich": 7914,
      "Ġentschieden": 7915,
      "Ġcontribute": 7916,
      "Ġconfidence": 7917,
      "Ġerkennen": 7918,
      "Ġgesetzt": 7919,
      "âĢľ.": 7920,
      "TV": 7921,
      "Ġadministration": 7922,
      "ĠÃĸl": 7923,
      "Ġgegr": 7924,
      "Ġunemployment": 7925,
      "lichung": 7926,
      "Ġsupports": 7927,
      "Ġintell": 7928,
      "ĠEntschlieÃŁungsant": 7929,
      "Ġstabil": 7930,
      "ĠCre": 7931,
      "ago": 7932,
      "Ġstructural": 7933,
      "brit": 7934,
      "ĠkÃ¼rz": 7935,
      "Ġcos": 7936,
      "ĠWahlen": 7937,
      "Ġextend": 7938,
      "Ġextensive": 7939,
      "Ġgere": 7940,
      "Ġ1990": 7941,
      "igran": 7942,
      "laufen": 7943,
      "Ġ45": 7944,
      "ĠBesonder": 7945,
      "Ġsays": 7946,
      "ĠHolz": 7947,
      "reiber": 7948,
      "Ġersch": 7949,
      "Ġinfrastructure": 7950,
      "Ġensuring": 7951,
      "Ġunterb": 7952,
      "bad": 7953,
      "ĠDurchfÃ¼hrung": 7954,
      "alled": 7955,
      "Ġ\"...": 7956,
      "âĢĿ,": 7957,
      "struktur": 7958,
      "ĠLicht": 7959,
      "zech": 7960,
      "Ġelektron": 7961,
      "Ġcoordin": 7962,
      "Ġzufrieden": 7963,
      "ĠmilitÃ¤r": 7964,
      "ĠberÃ¼cksichtigen": 7965,
      "iano": 7966,
      "verlÃ¤ss": 7967,
      "ĠWann": 7968,
      "ĠElekt": 7969,
      "ĠHis": 7970,
      "ĠHaft": 7971,
      "Ġparticipation": 7972,
      "Ġunterschiedlichen": 7973,
      "Ġed": 7974,
      "Ġrise": 7975,
      "Ġauszu": 7976,
      "Ãľ": 7977,
      "Ġce": 7978,
      "ĠEv": 7979,
      "Ġwesentlich": 7980,
      "ael": 7981,
      "Ġvorsch": 7982,
      "fÃ¤lle": 7983,
      "ĠBoden": 7984,
      "artigen": 7985,
      "Ġangegeben": 7986,
      "://": 7987,
      "Ġscope": 7988,
      "ĠVereinbarung": 7989,
      "Ġencourage": 7990,
      "ĠIP": 7991,
      "ĠBran": 7992,
      "Ġpowerful": 7993,
      "Ch": 7994,
      "Ġvictims": 7995,
      "ĠAutom": 7996,
      "Ġanz": 7997,
      "ING": 7998,
      "aming": 7999,
      "izenz": 8000,
      "Ġspecifically": 8001,
      "Ġmanner": 8002,
      "ĠKriterien": 8003,
      "Ã¤stinens": 8004,
      "Ġmedic": 8005,
      "ĠKÃ¶rper": 8006,
      "Ġoccur": 8007,
      "Ġplayed": 8008,
      "entwicklung": 8009,
      "iums": 8010,
      "Ġmid": 8011,
      "Ġherz": 8012,
      "ĠRa": 8013,
      "Ġ;": 8014,
      "Ġcrime": 8015,
      "ongs": 8016,
      "ĠSing": 8017,
      "Ġspeziell": 8018,
      "ĠNah": 8019,
      "Ġvoraus": 8020,
      "ĠAlp": 8021,
      "ĠOsten": 8022,
      "ĠSea": 8023,
      "haften": 8024,
      "Ġfellow": 8025,
      "ĠAusbildung": 8026,
      "Ġaktuelle": 8027,
      "ĠGarant": 8028,
      "aria": 8029,
      "ĠBestand": 8030,
      "lying": 8031,
      "ĠIndeed": 8032,
      "elte": 8033,
      "Ġgezeigt": 8034,
      "omet": 8035,
      "Ġelectronic": 8036,
      "daten": 8037,
      "fu": 8038,
      "ampag": 8039,
      "Ġmindestens": 8040,
      "ĠAN": 8041,
      "zentrum": 8042,
      "Ġbewusst": 8043,
      "Ã¼ndung": 8044,
      "my": 8045,
      "benen": 8046,
      "ĠWaffen": 8047,
      "Ġmehreren": 8048,
      "ĠKommunikation": 8049,
      "iler": 8050,
      "Ġtabled": 8051,
      "90": 8052,
      "ĠSpr": 8053,
      "Ġpurposes": 8054,
      "ĠAny": 8055,
      "azz": 8056,
      "ĠAnspruch": 8057,
      "Ã¡n": 8058,
      "het": 8059,
      "ĠErn": 8060,
      "Ġherunter": 8061,
      "ĠWik": 8062,
      "ologischen": 8063,
      "ĠArchite": 8064,
      "mon": 8065,
      "gewÃ¶hn": 8066,
      "inian": 8067,
      "Ġplus": 8068,
      "Ġintroduced": 8069,
      "ĠverfÃ¼gbar": 8070,
      "ĠLab": 8071,
      "esearch": 8072,
      "96": 8073,
      "Ñĥ": 8074,
      "Ġagriculture": 8075,
      "Ġdemokratischen": 8076,
      "Ġhochwert": 8077,
      "endet": 8078,
      "ĠMitteilung": 8079,
      "Ġdanke": 8080,
      "Ġblack": 8081,
      "Ã¤den": 8082,
      "Ġerreich": 8083,
      "Ġnachdem": 8084,
      "ĠAbschluss": 8085,
      "Ġchurch": 8086,
      "Ġhund": 8087,
      "afft": 8088,
      "odies": 8089,
      "Ġquant": 8090,
      "wirken": 8091,
      "rel": 8092,
      "laus": 8093,
      "ĠAgenda": 8094,
      "Ġrepla": 8095,
      "ĠAnn": 8096,
      "arus": 8097,
      "Ġentsprechende": 8098,
      "Ġhinweisen": 8099,
      "Ġeffectively": 8100,
      "orea": 8101,
      "Ġgetting": 8102,
      "ĠIdent": 8103,
      "fiz": 8104,
      "anlagen": 8105,
      "Ġlarger": 8106,
      "Ġwonderful": 8107,
      "ham": 8108,
      "ĠVorteile": 8109,
      "ĠAgreement": 8110,
      "ĠEach": 8111,
      "Ġsources": 8112,
      "time": 8113,
      "ĠBemerk": 8114,
      "ĠIM": 8115,
      "ĠRegional": 8116,
      "Ġdetailed": 8117,
      "ĠAnder": 8118,
      "Ġanimals": 8119,
      "aktiv": 8120,
      "ĠnÃ¶t": 8121,
      "Ġscreen": 8122,
      "Ġharm": 8123,
      "Ġserved": 8124,
      "Ġglauben": 8125,
      "ĠPartei": 8126,
      "ĠLiber": 8127,
      "Ġship": 8128,
      "Ġplatform": 8129,
      "Ġaimed": 8130,
      "gerungen": 8131,
      "ĠStabilitÃ¤t": 8132,
      "Ġusually": 8133,
      "zeichnen": 8134,
      "Ġfert": 8135,
      "Ġreferred": 8136,
      "Ġcompetitive": 8137,
      "ĠBesucher": 8138,
      "rans": 8139,
      "Ġbeschlossen": 8140,
      "ĠOlymp": 8141,
      "letter": 8142,
      "ĠEnterprise": 8143,
      "CD": 8144,
      "ĠSchaden": 8145,
      "ĠZwischen": 8146,
      "Ġfunctions": 8147,
      "amber": 8148,
      "ickets": 8149,
      "IG": 8150,
      "iat": 8151,
      "Ġec": 8152,
      "ĠWÃ¤hrung": 8153,
      "ĠSand": 8154,
      "Ġclient": 8155,
      "Ġnationale": 8156,
      "ĠerwÃ¤hnt": 8157,
      "Ġsummit": 8158,
      "idents": 8159,
      "Ġgesprochen": 8160,
      "ĠMost": 8161,
      "ĠGlÃ¼ck": 8162,
      "ĠHintergrund": 8163,
      "ĠPolicy": 8164,
      "Ġeuch": 8165,
      "schuld": 8166,
      "Ġmm": 8167,
      "Ã¶m": 8168,
      "Ġdedic": 8169,
      "mack": 8170,
      "ĠMio": 8171,
      "Ġpleasant": 8172,
      "ĠInhalte": 8173,
      "Ġglobalen": 8174,
      "IR": 8175,
      "Ġwhite": 8176,
      "Ġwert": 8177,
      "ĠSprachen": 8178,
      "Ġinstallation": 8179,
      "uit": 8180,
      "Ġmotion": 8181,
      "Ġexactly": 8182,
      "hle": 8183,
      "idential": 8184,
      "Ġserve": 8185,
      "Ġzentral": 8186,
      "Ġsort": 8187,
      "ĠFrankfurt": 8188,
      "Ġrural": 8189,
      "Ġangesprochen": 8190,
      "ĠAsia": 8191,
      "ideos": 8192,
      "ĠSerb": 8193,
      "ida": 8194,
      "ĠBoard": 8195,
      "do": 8196,
      "esents": 8197,
      "ĠTab": 8198,
      "ĠEinsch": 8199,
      "ĠAbs": 8200,
      "Ġbesonderen": 8201,
      "ĠKoordin": 8202,
      "ault": 8203,
      "Ġkontroll": 8204,
      "ĠZeichen": 8205,
      "Ġrisks": 8206,
      "avi": 8207,
      "Ġinstitutional": 8208,
      "Ġpoll": 8209,
      "Ġprotected": 8210,
      "ĠIrak": 8211,
      "ĠInnovation": 8212,
      "ĠSom": 8213,
      "Ġprem": 8214,
      "ĠMensch": 8215,
      "Ġreception": 8216,
      "spunkt": 8217,
      "Ġprecisely": 8218,
      "Ġsitting": 8219,
      "Ġdead": 8220,
      "ĠFakt": 8221,
      "ĠIndia": 8222,
      "itzerland": 8223,
      "Ġchann": 8224,
      "Ġakzeptieren": 8225,
      "oted": 8226,
      "ĠAssoc": 8227,
      "ĠNahr": 8228,
      "PT": 8229,
      "zieht": 8230,
      "ĠDol": 8231,
      "ĠReformen": 8232,
      "ounge": 8233,
      "called": 8234,
      "udem": 8235,
      "Ġ1995": 8236,
      "Ġsicherzustellen": 8237,
      "Ġcompeten": 8238,
      "sm": 8239,
      "Ġluxur": 8240,
      "ĠArab": 8241,
      "ĠAccording": 8242,
      "ĠCast": 8243,
      "Ġvac": 8244,
      "Ġeinzus": 8245,
      "Ġeingerichtet": 8246,
      "Ġbecoming": 8247,
      "Ġstated": 8248,
      "ĠVerwaltungs": 8249,
      "ua": 8250,
      "Ġ2020": 8251,
      "Ġotherwise": 8252,
      "ĠGriechen": 8253,
      "oom": 8254,
      "Ġfacilit": 8255,
      "uts": 8256,
      "Ġpolice": 8257,
      "Ġcamera": 8258,
      "ĠSchlaf": 8259,
      "law": 8260,
      "Ġrepresents": 8261,
      "ĠUs": 8262,
      "fahrens": 8263,
      "ibilitÃ¤t": 8264,
      "ĠFot": 8265,
      "ĠKind": 8266,
      "Ã¤her": 8267,
      "Ġgeeignet": 8268,
      "ĠCzech": 8269,
      "Ġwants": 8270,
      "ĠPaul": 8271,
      "Ġmand": 8272,
      "ĠFischerei": 8273,
      "stieg": 8274,
      "Ġdiscussed": 8275,
      "Ġtemper": 8276,
      "02": 8277,
      "Ġbudgetary": 8278,
      "ĠMotor": 8279,
      "Ġwahrscheinlich": 8280,
      "ĠHomepage": 8281,
      "weder": 8282,
      "ĠMiddle": 8283,
      "wegung": 8284,
      "Ġdevelopments": 8285,
      "fÃ¼hrer": 8286,
      "unkten": 8287,
      "Ġbestehenden": 8288,
      "Ġ..": 8289,
      "Ġverz": 8290,
      "agegen": 8291,
      "Ġdiscussions": 8292,
      "ĠSalz": 8293,
      "Â°": 8294,
      "ield": 8295,
      "gree": 8296,
      "Ã¤user": 8297,
      "'ll": 8298,
      "Ġbenutzen": 8299,
      "Ġlikely": 8300,
      "ĠReserv": 8301,
      "ĠEff": 8302,
      "ĠRoman": 8303,
      "ĠBew": 8304,
      "ĠAusgaben": 8305,
      "Ġerzielt": 8306,
      "ala": 8307,
      "Ġzug": 8308,
      "quality": 8309,
      "Ġ32": 8310,
      "ĠKomfort": 8311,
      "Ġmix": 8312,
      "Ġconvin": 8313,
      "ipt": 8314,
      "ĠCard": 8315,
      "ĠSektor": 8316,
      "jected": 8317,
      "uber": 8318,
      "ĠSchlieÃŁlich": 8319,
      "Ġspacious": 8320,
      "enhagen": 8321,
      "Ġdomin": 8322,
      "Ġconver": 8323,
      "ĠKarte": 8324,
      "ĠZudem": 8325,
      "ĠThen": 8326,
      "Ġprograms": 8327,
      "ĠZunÃ¤chst": 8328,
      "wasser": 8329,
      "ĠtrÃ¤": 8330,
      "mas": 8331,
      "Ġehr": 8332,
      "ĠIndustr": 8333,
      "Ġauth": 8334,
      "atively": 8335,
      "Ġmanaged": 8336,
      "Ġthousands": 8337,
      "unk": 8338,
      "ĠFebruary": 8339,
      "ĠKonflikt": 8340,
      "IE": 8341,
      "ĠVerfass": 8342,
      "Ġwatch": 8343,
      "Ġforget": 8344,
      "Ġsold": 8345,
      "Ġrechts": 8346,
      "ĠAufnahme": 8347,
      "Ġfreuen": 8348,
      "Ġexpens": 8349,
      "uisine": 8350,
      "Ġwood": 8351,
      "Ġremark": 8352,
      "ĠCode": 8353,
      "Ġfestgelegt": 8354,
      "ĠSchengen": 8355,
      "ĠmÃ¶glicherweise": 8356,
      "ĠHaltung": 8357,
      "amente": 8358,
      "ĠHaushalt": 8359,
      "Ġmetres": 8360,
      "ĠProv": 8361,
      "ĠExp": 8362,
      "Ġexpand": 8363,
      "Ġausgew": 8364,
      "Ġentry": 8365,
      "ĠGreat": 8366,
      "jo": 8367,
      "ĠWellness": 8368,
      "Ġassessment": 8369,
      "Ġcovered": 8370,
      "Ġzuletzt": 8371,
      "Ã¼ste": 8372,
      "achtet": 8373,
      "icks": 8374,
      "Äį": 8375,
      "ĠProte": 8376,
      "Ġcompl": 8377,
      "Ġpaper": 8378,
      "schiede": 8379,
      "Ġcritical": 8380,
      "ĠLuxem": 8381,
      "Ġ?": 8382,
      "Ġumgesetzt": 8383,
      "Ġcorresp": 8384,
      "Ġexpected": 8385,
      "Ġjene": 8386,
      "Ġnotwendigen": 8387,
      "ĠKenntnis": 8388,
      "categories": 8389,
      "ĠprÃ¼fen": 8390,
      "ĠOther": 8391,
      "Ġguidelines": 8392,
      "ĠVorbereit": 8393,
      "Ġmil": 8394,
      "ĠBeitritts": 8395,
      "ĠgeÃ¤ndert": 8396,
      "Ġinside": 8397,
      "Ġselected": 8398,
      "Ġprovider": 8399,
      "aste": 8400,
      "Ġfollowed": 8401,
      "Ġfinanziellen": 8402,
      "Sp": 8403,
      "Ã¼cke": 8404,
      "Ġactual": 8405,
      "Ġanderes": 8406,
      "Ġhoffen": 8407,
      "ĠAnpass": 8408,
      "ensions": 8409,
      "Ġdefend": 8410,
      "rum": 8411,
      "bu": 8412,
      "ĠerfÃ¼llt": 8413,
      "werke": 8414,
      "Ġearlier": 8415,
      "Ġclosely": 8416,
      "Ġdienen": 8417,
      "Ġradio": 8418,
      "Ġintroduction": 8419,
      "ĠTurk": 8420,
      "Ġwinter": 8421,
      "posed": 8422,
      "ĠWettbewerbsfÃ¤higkeit": 8423,
      "Ġmedical": 8424,
      "ĠUnterkategorien": 8425,
      "ureau": 8426,
      "Ġbequem": 8427,
      "Ġweap": 8428,
      "Ġergreifen": 8429,
      "Ġdebt": 8430,
      "Ġcentr": 8431,
      "ĠiP": 8432,
      "ĠNutzen": 8433,
      "Ġlisted": 8434,
      "Ġfreien": 8435,
      "ĠSchlÃ¼ssel": 8436,
      "Ġbuildings": 8437,
      "Ġvotes": 8438,
      "ĠStraÃŁe": 8439,
      "ĠMilit": 8440,
      "ĠRichtlinien": 8441,
      "Ġenterprises": 8442,
      "ĠResearch": 8443,
      "kap": 8444,
      "ente": 8445,
      "ĠMonate": 8446,
      "Sh": 8447,
      "ĠTar": 8448,
      "ulieren": 8449,
      "Ġunters": 8450,
      "ĠFunktionen": 8451,
      "uropa": 8452,
      "ĠTechnologien": 8453,
      "ĠGeh": 8454,
      "ailing": 8455,
      "ĠRooms": 8456,
      "Ġimpress": 8457,
      "Ġspread": 8458,
      "Ġjederzeit": 8459,
      "Ġbeziehen": 8460,
      "prÃ¤sident": 8461,
      "ĠAp": 8462,
      "Ġscen": 8463,
      "ĠWhy": 8464,
      "cers": 8465,
      "werten": 8466,
      "Ġnetworks": 8467,
      "Ġdisapp": 8468,
      "inu": 8469,
      "ĠTun": 8470,
      "ulierung": 8471,
      "Ġaccomp": 8472,
      "ĠFle": 8473,
      "ĠlÃ¶sen": 8474,
      "ĠwÃ¼nschen": 8475,
      "Ġvermeiden": 8476,
      "asts": 8477,
      "ĠZweck": 8478,
      "DP": 8479,
      "ĠEconomic": 8480,
      "levision": 8481,
      "ĠPower": 8482,
      "denken": 8483,
      "Ġtrust": 8484,
      "Ġschwierig": 8485,
      "ĠProdukten": 8486,
      "britann": 8487,
      "ĠFischere": 8488,
      "gets": 8489,
      "Ġimproving": 8490,
      "Ġelectric": 8491,
      "ĠClick": 8492,
      "ads": 8493,
      "Ġfahren": 8494,
      "Ġcolor": 8495,
      "Ġade": 8496,
      "ishing": 8497,
      "ĠUmst": 8498,
      "iques": 8499,
      "Ġgraph": 8500,
      "band": 8501,
      "Ġausger": 8502,
      "Ġbraucht": 8503,
      "Ġlinked": 8504,
      "ĠKlein": 8505,
      "ĠAv": 8506,
      "ĠStil": 8507,
      "Ġterritor": 8508,
      "Ġeinzu": 8509,
      "Ġopened": 8510,
      "ĠKindern": 8511,
      "either": 8512,
      "Ġoperations": 8513,
      "Ġgleiche": 8514,
      "Ġ400": 8515,
      "Ġsupporting": 8516,
      "mod": 8517,
      "vements": 8518,
      "Ġries": 8519,
      "ĠsÃ¼d": 8520,
      "Ġexplo": 8521,
      "ĠHaup": 8522,
      "onym": 8523,
      "atik": 8524,
      "jekten": 8525,
      "sta": 8526,
      "ĠVielfalt": 8527,
      "cause": 8528,
      "Ġunderstanding": 8529,
      "Ġimmigration": 8530,
      "ĠArten": 8531,
      "Ġunc": 8532,
      "reiten": 8533,
      "ĠÃ©": 8534,
      "Ġspeech": 8535,
      "ĠJa": 8536,
      "Ġmarketing": 8537,
      "ĠDateien": 8538,
      "Ġged": 8539,
      "Ġverbessert": 8540,
      "aves": 8541,
      "ĠSuche": 8542,
      "ingu": 8543,
      "rahmen": 8544,
      "freiheit": 8545,
      "scher": 8546,
      "Ġexclusive": 8547,
      "Ġtelephone": 8548,
      "Ġuses": 8549,
      "Ġmultip": 8550,
      "ĠSchiff": 8551,
      "wirk": 8552,
      "ĠFound": 8553,
      "Ġcomment": 8554,
      "Ġdegree": 8555,
      "Ġstattfinden": 8556,
      "ĠMeter": 8557,
      "ĠCharakter": 8558,
      "ĠInfrastruktur": 8559,
      "ĠApartments": 8560,
      "Ġfrag": 8561,
      "Ġkostenlos": 8562,
      "Ġconsiderable": 8563,
      "ĠGreece": 8564,
      "Ġbeds": 8565,
      "ktiven": 8566,
      "TA": 8567,
      "Ġwent": 8568,
      "ĠSwitzerland": 8569,
      "Ġfallen": 8570,
      "Ġcompens": 8571,
      "etze": 8572,
      "Ġmap": 8573,
      "gencies": 8574,
      "ĠPack": 8575,
      "ĠprÃ¤": 8576,
      "ĠInstallation": 8577,
      "inc": 8578,
      "bruch": 8579,
      "ĠSinn": 8580,
      "Ġtempor": 8581,
      "Ġmultil": 8582,
      "Ġsicherlich": 8583,
      "roh": 8584,
      "ĠOffice": 8585,
      "Ġhands": 8586,
      "ĠFrem": 8587,
      "ĠEinrichtungen": 8588,
      "Ġlesen": 8589,
      "ĠBreak": 8590,
      "Ġsubstantial": 8591,
      "Ġentit": 8592,
      "crete": 8593,
      "union": 8594,
      "ĠMoment": 8595,
      "ometer": 8596,
      "clude": 8597,
      "Ġcompar": 8598,
      "ĠBush": 8599,
      "ĠRein": 8600,
      "mÃ¶glich": 8601,
      "ora": 8602,
      "imb": 8603,
      "istence": 8604,
      "Ġempfehl": 8605,
      "punkte": 8606,
      "ĠStandards": 8607,
      "konferenz": 8608,
      "ĠMenge": 8609,
      "igem": 8610,
      "ĠgemÃ¼t": 8611,
      "Ġabst": 8612,
      "ĠPrag": 8613,
      "Ġacqu": 8614,
      "kunfts": 8615,
      "Ġshower": 8616,
      "Ġtourism": 8617,
      "Ġsave": 8618,
      "35": 8619,
      "ĠGrundsatz": 8620,
      "Ġpresence": 8621,
      "Ġdestro": 8622,
      "itors": 8623,
      "Ġgave": 8624,
      "ĠWege": 8625,
      "can": 8626,
      "Ġabzu": 8627,
      "Ġdarunter": 8628,
      "Ġgelangen": 8629,
      "olden": 8630,
      "ĠTelefon": 8631,
      "Ġeffizient": 8632,
      "istrib": 8633,
      "Ġjeweils": 8634,
      "Ġproperly": 8635,
      "uard": 8636,
      "prÃ¼fung": 8637,
      "Ġpicture": 8638,
      "Ġgern": 8639,
      "Ġcuisine": 8640,
      "ĠgewÃ¼n": 8641,
      "Ġscr": 8642,
      "Ġcomponents": 8643,
      "ĠBarro": 8644,
      "Ġplaying": 8645,
      "ĠTop": 8646,
      "ussels": 8647,
      "ĠStimme": 8648,
      "Ġangezeigt": 8649,
      "Ġerzielen": 8650,
      "Ġbrief": 8651,
      "ĠStreet": 8652,
      "leitung": 8653,
      "ee": 8654,
      "ĠKy": 8655,
      "Ġhtt": 8656,
      "Ġpurchase": 8657,
      "atoren": 8658,
      "Ġentweder": 8659,
      "ĠForderung": 8660,
      "ĠStation": 8661,
      "nach": 8662,
      "Ġbott": 8663,
      "Ġdelay": 8664,
      "Ġ--": 8665,
      "Ġitems": 8666,
      "Ġconvenient": 8667,
      "âĢĵ": 8668,
      "uting": 8669,
      "ĠSehens": 8670,
      "ikanische": 8671,
      "Ġphotograph": 8672,
      "Ġanimal": 8673,
      "Ġfisheries": 8674,
      "gemeine": 8675,
      "ADS": 8676,
      "ĠVereinten": 8677,
      "sper": 8678,
      "Ġduty": 8679,
      "Ġdoor": 8680,
      "prechen": 8681,
      "Ġfounded": 8682,
      "Ġexperts": 8683,
      "chmal": 8684,
      "zieren": 8685,
      "ĠBelarus": 8686,
      "ĠerhÃ¶hen": 8687,
      "Ġcoordination": 8688,
      "ĠFebruar": 8689,
      "aw": 8690,
      "Ġdramat": 8691,
      "ĠGroÃŁbritann": 8692,
      "Ġentirely": 8693,
      "ĠergÃ¤n": 8694,
      "ĠausdrÃ¼cklich": 8695,
      "maÃŁ": 8696,
      "Ã¼tze": 8697,
      "ĠÃ¼bernachten": 8698,
      "Ġplants": 8699,
      "ĠWirk": 8700,
      "dis": 8701,
      "wohner": 8702,
      "lad": 8703,
      "Ġging": 8704,
      "preis": 8705,
      "Ġsole": 8706,
      "ĠAbschlieÃŁend": 8707,
      "gebaut": 8708,
      "itter": 8709,
      "stelle": 8710,
      "Ġformat": 8711,
      "ĠStatus": 8712,
      "Ġincor": 8713,
      "Aus": 8714,
      "ĠPhil": 8715,
      "itze": 8716,
      "Ġalloc": 8717,
      "ĠLehr": 8718,
      "Ġauthority": 8719,
      "Ġtypical": 8720,
      "Ġmobil": 8721,
      "ĠLib": 8722,
      "Ġstrict": 8723,
      "Ġrefuge": 8724,
      "Ġteilweise": 8725,
      "ĠstÃ¤rk": 8726,
      "ĠwÃ¤ren": 8727,
      "Ġgekommen": 8728,
      "Ġgenerally": 8729,
      "ĠVÃ¶lker": 8730,
      "Ġcompetitiveness": 8731,
      "Ġuntern": 8732,
      "Ġbesuchen": 8733,
      "Ġpresidency": 8734,
      "gment": 8735,
      "schul": 8736,
      "Ġsho": 8737,
      "Ġgrenz": 8738,
      "ĠArbeiten": 8739,
      "ĠISO": 8740,
      "ĠBereit": 8741,
      "Ġwilling": 8742,
      "gal": 8743,
      "Ġdifficulties": 8744,
      "Ġtechnische": 8745,
      "ĠKlimawand": 8746,
      "ĠNever": 8747,
      "Ġalte": 8748,
      "Ġwelcher": 8749,
      "Ġtack": 8750,
      "Ġsagt": 8751,
      "Ġdealing": 8752,
      "Ġcoffe": 8753,
      "vey": 8754,
      "tempor": 8755,
      "Ġelimin": 8756,
      "ĠNI": 8757,
      "club": 8758,
      "rÃ¤ft": 8759,
      "ĠstÃ¤ndig": 8760,
      "ĠBÃ¼ro": 8761,
      "ennis": 8762,
      "ĠDatei": 8763,
      "ĠNetzwerk": 8764,
      "ura": 8765,
      "Ã¼nen": 8766,
      "ĠBrussels": 8767,
      "Ġinterpret": 8768,
      "Ġkomplett": 8769,
      "Ġkommenden": 8770,
      "schlossen": 8771,
      "Ġcombat": 8772,
      "ĠGuest": 8773,
      "Ġstimme": 8774,
      "45": 8775,
      "Ġhosp": 8776,
      "try": 8777,
      "Ġwollte": 8778,
      "Ġpermanent": 8779,
      "ĠFore": 8780,
      "ĠPoland": 8781,
      "Ġbetonen": 8782,
      "Ġkomplex": 8783,
      "ĠPlen": 8784,
      "Ġchines": 8785,
      "Ġdispos": 8786,
      "Ġnieder": 8787,
      "Ġconstit": 8788,
      "Ġerstellt": 8789,
      "plÃ¤tze": 8790,
      "Ġcriminal": 8791,
      "RA": 8792,
      "Ãĥ": 8793,
      "ĠSow": 8794,
      "ĠHealth": 8795,
      "Ġpsych": 8796,
      "Er": 8797,
      "Ġrelate": 8798,
      "ĠWien": 8799,
      "ĠKol": 8800,
      "Â»": 8801,
      "gewicht": 8802,
      "EA": 8803,
      "Ġzuvor": 8804,
      "ĠPakistan": 8805,
      "Ġverur": 8806,
      "Ġorganisation": 8807,
      "Ġdetail": 8808,
      "ĠTeile": 8809,
      "sb": 8810,
      "ĠLeistungen": 8811,
      "Ġrecognis": 8812,
      "ĠBos": 8813,
      "ĠBecause": 8814,
      "erstellen": 8815,
      "km": 8816,
      "ĠOver": 8817,
      "rÃ¤gen": 8818,
      "Ã¼nden": 8819,
      "fÃ¼ll": 8820,
      "ĠVerÃ¤nderungen": 8821,
      "Ġsuc": 8822,
      "Ġshops": 8823,
      "Ġinformieren": 8824,
      "Ġfunktioniert": 8825,
      "Ġklare": 8826,
      "overy": 8827,
      "Ġpeaceful": 8828,
      "Ġhandeln": 8829,
      "mÃ¤r": 8830,
      "ishes": 8831,
      "ossible": 8832,
      "Ġvehicles": 8833,
      "ĠBerichte": 8834,
      "fachen": 8835,
      "Ġfacing": 8836,
      "ĠInstrumente": 8837,
      "ĠSach": 8838,
      "Ġcalc": 8839,
      "Ġlernen": 8840,
      "Ġmoral": 8841,
      "ĠInitiativen": 8842,
      "inary": 8843,
      "ries": 8844,
      "ĠBay": 8845,
      "01": 8846,
      "ĠHeil": 8847,
      "Ġthinking": 8848,
      "Ġmachines": 8849,
      "ĠSP": 8850,
      "ĠName": 8851,
      "ĠUnabhÃ¤ng": 8852,
      "Ġsand": 8853,
      "ĠMadrid": 8854,
      "aken": 8855,
      "Ġparagraph": 8856,
      "ĠBanken": 8857,
      "Ġdarstellen": 8858,
      "MU": 8859,
      "ameter": 8860,
      "ĠAbgeordnete": 8861,
      "ĠÅ": 8862,
      "umn": 8863,
      "Ġresort": 8864,
      "ĠVerstÃ¤nd": 8865,
      "Ġspeaking": 8866,
      "Ġfragen": 8867,
      "Ġmeetings": 8868,
      "Ġpercent": 8869,
      "ĠEisen": 8870,
      "ĠSchn": 8871,
      "Ġadjust": 8872,
      "Ġsauber": 8873,
      "ĠUnfortunately": 8874,
      "Ġflexibility": 8875,
      "yer": 8876,
      "Ġober": 8877,
      "ĠDienste": 8878,
      "ĠAbsatz": 8879,
      "ĠWebseite": 8880,
      "Ġresist": 8881,
      "Ġhttp": 8882,
      "Ġapplies": 8883,
      "ĠZeitraum": 8884,
      "umm": 8885,
      "portion": 8886,
      "ĠLeider": 8887,
      "Ġconsideration": 8888,
      "Ġaverage": 8889,
      "Ġtrave": 8890,
      "ĠVill": 8891,
      "ĠAct": 8892,
      "Ġ),": 8893,
      "ĠSysteme": 8894,
      "Ġrefle": 8895,
      "Ġdistrict": 8896,
      "ĠBand": 8897,
      "Ġbecomes": 8898,
      "ĠOut": 8899,
      "ĠEngagement": 8900,
      "ova": 8901,
      "Ġnumbers": 8902,
      "Ġbear": 8903,
      "ĠIC": 8904,
      "Ġruss": 8905,
      "ĠKal": 8906,
      "Ġincome": 8907,
      "inding": 8908,
      "IB": 8909,
      "schech": 8910,
      "Ġhour": 8911,
      "ĠBegriff": 8912,
      "ĠJetzt": 8913,
      "Ġgefordert": 8914,
      "stechn": 8915,
      "Ġdagegen": 8916,
      "ĠGrenz": 8917,
      "allel": 8918,
      "ĠKurz": 8919,
      "bew": 8920,
      "Ġfixed": 8921,
      "ĠEnvironment": 8922,
      "ĠMaschinen": 8923,
      "ĠWander": 8924,
      "Ġtold": 8925,
      "iking": 8926,
      "Ġopposition": 8927,
      "ashion": 8928,
      "rich": 8929,
      "oman": 8930,
      "ĠEADS": 8931,
      "hnung": 8932,
      "Ġpractices": 8933,
      "tete": 8934,
      "Ġdro": 8935,
      "ĠZeiten": 8936,
      "like": 8937,
      "Ġdurchaus": 8938,
      "Ġkonkrete": 8939,
      "Ġschem": 8940,
      "Ġdomestic": 8941,
      "ĠGipfel": 8942,
      "Ġpromotion": 8943,
      "ĠPHP": 8944,
      "lern": 8945,
      "Ġsorg": 8946,
      "Ġwenigen": 8947,
      "Ġverring": 8948,
      "ĠMir": 8949,
      "ĠHerstellung": 8950,
      "Ġsle": 8951,
      "ĠMount": 8952,
      "ĠstÃ¤rken": 8953,
      "hrase": 8954,
      "ĠUnder": 8955,
      "embly": 8956,
      "Ġsucceed": 8957,
      "Ġinstru": 8958,
      "Ġerleben": 8959,
      "Ġunternehmen": 8960,
      "Ã¶ffnen": 8961,
      "Ġjur": 8962,
      "ĠMÃ¶": 8963,
      "ĠÃľbergang": 8964,
      "Ġgradu": 8965,
      "ĠMitgliedstaat": 8966,
      "ĠAngaben": 8967,
      "ĠVielen": 8968,
      "32": 8969,
      "ĠKritik": 8970,
      "aker": 8971,
      "Ġbodies": 8972,
      "ĠCasino": 8973,
      "ĠFonds": 8974,
      "Ġorient": 8975,
      "SL": 8976,
      "ĠGN": 8977,
      "ĠBern": 8978,
      "ĠMel": 8979,
      "ranken": 8980,
      "Ġcontra": 8981,
      "haben": 8982,
      "Ġaims": 8983,
      "Ġvolle": 8984,
      "ĠgewÃ¤hrleistet": 8985,
      "pper": 8986,
      "hÃ¶rde": 8987,
      "iro": 8988,
      "Ġhimself": 8989,
      "qualitÃ¤t": 8990,
      "kle": 8991,
      "ĠBlack": 8992,
      "leistungs": 8993,
      "ĠOrigin": 8994,
      "Ġeingesch": 8995,
      "iÃŁen": 8996,
      "Ġpropose": 8997,
      "Ġlif": 8998,
      "illing": 8999,
      "ĠVien": 9000,
      "Ġmyself": 9001,
      "Ġwirks": 9002,
      "yes": 9003,
      "Str": 9004,
      "Ġlokalen": 9005,
      "Ġdefined": 9006,
      "ĠWass": 9007,
      "Ġsignal": 9008,
      "fÃ¼hrten": 9009,
      "ĠHauses": 9010,
      "Ġsuperv": 9011,
      "ĠNon": 9012,
      "LE": 9013,
      "ĠTool": 9014,
      "ĠGebieten": 9015,
      "ĠImmobilien": 9016,
      "ĠKil": 9017,
      "ĠOnce": 9018,
      "Ġestablishment": 9019,
      "ĠRisiko": 9020,
      "ĠverÃ¶ffentlicht": 9021,
      "Ġfle": 9022,
      "iche": 9023,
      "ĠAnteil": 9024,
      "Ġabsolut": 9025,
      "ĠWorte": 9026,
      "Ġadvanced": 9027,
      "2000": 9028,
      "isierten": 9029,
      "Ġrent": 9030,
      "cknow": 9031,
      "ĠerklÃ¤ren": 9032,
      "esterday": 9033,
      "ĠtrÃ¤gt": 9034,
      "fa": 9035,
      "tte": 9036,
      "Ġmiddle": 9037,
      "waren": 9038,
      "Ġeasier": 9039,
      ");": 9040,
      "Ġpolitics": 9041,
      "Ġfreue": 9042,
      "isms": 9043,
      "ĠSaf": 9044,
      "ĠEinigung": 9045,
      "Ġliebe": 9046,
      "Ġfit": 9047,
      "ĠhÃ¤lt": 9048,
      "bericht": 9049,
      "Ġclaim": 9050,
      "Ġhinzuf": 9051,
      "Ġdatabase": 9052,
      "uba": 9053,
      "ĠRoy": 9054,
      "ĠKÃ¶nigreich": 9055,
      "etter": 9056,
      "Ð²": 9057,
      "wagen": 9058,
      "ĠfrÃ¼h": 9059,
      "worten": 9060,
      "ĠbenÃ¶tigt": 9061,
      "Ġpromoting": 9062,
      "lisch": 9063,
      "Ġsigned": 9064,
      "Ġerfolgen": 9065,
      "haber": 9066,
      "Ġclar": 9067,
      "Ã©e": 9068,
      "opol": 9069,
      "Ġfinanzielle": 9070,
      "utin": 9071,
      "ando": 9072,
      "ĠHerausforderung": 9073,
      "ĠRegelung": 9074,
      "ĠWarum": 9075,
      "Ġfailure": 9076,
      "Ġpros": 9077,
      "ĠSehenswÃ¼rd": 9078,
      "free": 9079,
      "Ġinformed": 9080,
      "known": 9081,
      "ĠLo": 9082,
      "Ġfinancing": 9083,
      "Ġzul": 9084,
      "Ã¶der": 9085,
      "accept": 9086,
      "Ġparliamentary": 9087,
      "Ġconduct": 9088,
      "year": 9089,
      "ibet": 9090,
      "ĠVersuch": 9091,
      "Ġverwende": 9092,
      "schung": 9093,
      "Ġacknow": 9094,
      "Ġerscheint": 9095,
      "ĠUl": 9096,
      "Ġseriously": 9097,
      "Ġexperienced": 9098,
      "Ġglob": 9099,
      "Ġancient": 9100,
      "ĠAtlant": 9101,
      "ĠStellungnahme": 9102,
      "ĠModern": 9103,
      "Ġmulti": 9104,
      "ĠSonnen": 9105,
      "Ġgering": 9106,
      "ĠKingdom": 9107,
      "ĠRatsvorsitz": 9108,
      "ĠRechnung": 9109,
      "ĠSuper": 9110,
      "flanzen": 9111,
      "lÃ¤gen": 9112,
      "Ġvoice": 9113,
      "Ñı": 9114,
      "wogen": 9115,
      "pendence": 9116,
      "Ne": 9117,
      "ĠnÃ¤chste": 9118,
      "ĠPrioritÃ¤ten": 9119,
      "Ġdennoch": 9120,
      "ĠForderungen": 9121,
      "Ġanyone": 9122,
      "making": 9123,
      "Ġtranslation": 9124,
      "Ġcoffee": 9125,
      "ĠZweifel": 9126,
      "ĠKenn": 9127,
      "ĠKlicken": 9128,
      "Ġgeograph": 9129,
      "ĠmÃ¶glichst": 9130,
      "ĠSanta": 9131,
      "lÃ¶sung": 9132,
      "Ġlength": 9133,
      "ĠAsyl": 9134,
      "ĠBib": 9135,
      "Ã¼g": 9136,
[...]
